unsigned char g_mnist_digits_tiny_int8_tflite[] = {
  0x1c, 0x00, 0x00, 0x00, 0x54, 0x46, 0x4c, 0x33, 0x14, 0x00, 0x20, 0x00,
  0x1c, 0x00, 0x18, 0x00, 0x14, 0x00, 0x10, 0x00, 0x0c, 0x00, 0x00, 0x00,
  0x08, 0x00, 0x04, 0x00, 0x14, 0x00, 0x00, 0x00, 0x1c, 0x00, 0x00, 0x00,
  0x8c, 0x00, 0x00, 0x00, 0x0c, 0x01, 0x00, 0x00, 0x08, 0x13, 0x00, 0x00,
  0x18, 0x13, 0x00, 0x00, 0xe0, 0x22, 0x00, 0x00, 0x03, 0x00, 0x00, 0x00,
  0x01, 0x00, 0x00, 0x00, 0x04, 0x00, 0x00, 0x00, 0xee, 0xeb, 0xff, 0xff,
  0x0c, 0x00, 0x00, 0x00, 0x1c, 0x00, 0x00, 0x00, 0x3c, 0x00, 0x00, 0x00,
  0x0f, 0x00, 0x00, 0x00, 0x73, 0x65, 0x72, 0x76, 0x69, 0x6e, 0x67, 0x5f,
  0x64, 0x65, 0x66, 0x61, 0x75, 0x6c, 0x74, 0x00, 0x01, 0x00, 0x00, 0x00,
  0x04, 0x00, 0x00, 0x00, 0x68, 0xff, 0xff, 0xff, 0x11, 0x00, 0x00, 0x00,
  0x04, 0x00, 0x00, 0x00, 0x08, 0x00, 0x00, 0x00, 0x6f, 0x75, 0x74, 0x70,
  0x75, 0x74, 0x5f, 0x30, 0x00, 0x00, 0x00, 0x00, 0x01, 0x00, 0x00, 0x00,
  0x04, 0x00, 0x00, 0x00, 0xd2, 0xec, 0xff, 0xff, 0x04, 0x00, 0x00, 0x00,
  0x0f, 0x00, 0x00, 0x00, 0x6b, 0x65, 0x72, 0x61, 0x73, 0x5f, 0x74, 0x65,
  0x6e, 0x73, 0x6f, 0x72, 0x5f, 0x31, 0x36, 0x00, 0x03, 0x00, 0x00, 0x00,
  0x5c, 0x00, 0x00, 0x00, 0x2c, 0x00, 0x00, 0x00, 0x04, 0x00, 0x00, 0x00,
  0xb8, 0xff, 0xff, 0xff, 0x15, 0x00, 0x00, 0x00, 0x04, 0x00, 0x00, 0x00,
  0x13, 0x00, 0x00, 0x00, 0x43, 0x4f, 0x4e, 0x56, 0x45, 0x52, 0x53, 0x49,
  0x4f, 0x4e, 0x5f, 0x4d, 0x45, 0x54, 0x41, 0x44, 0x41, 0x54, 0x41, 0x00,
  0xdc, 0xff, 0xff, 0xff, 0x14, 0x00, 0x00, 0x00, 0x04, 0x00, 0x00, 0x00,
  0x13, 0x00, 0x00, 0x00, 0x6d, 0x69, 0x6e, 0x5f, 0x72, 0x75, 0x6e, 0x74,
  0x69, 0x6d, 0x65, 0x5f, 0x76, 0x65, 0x72, 0x73, 0x69, 0x6f, 0x6e, 0x00,
  0x08, 0x00, 0x0c, 0x00, 0x08, 0x00, 0x04, 0x00, 0x08, 0x00, 0x00, 0x00,
  0x13, 0x00, 0x00, 0x00, 0x04, 0x00, 0x00, 0x00, 0x13, 0x00, 0x00, 0x00,
  0x6d, 0x69, 0x6e, 0x5f, 0x72, 0x75, 0x6e, 0x74, 0x69, 0x6d, 0x65, 0x5f,
  0x76, 0x65, 0x72, 0x73, 0x69, 0x6f, 0x6e, 0x00, 0x16, 0x00, 0x00, 0x00,
  0xf8, 0x11, 0x00, 0x00, 0xf0, 0x11, 0x00, 0x00, 0xd8, 0x11, 0x00, 0x00,
  0x9c, 0x11, 0x00, 0x00, 0xdc, 0x10, 0x00, 0x00, 0x8c, 0x10, 0x00, 0x00,
  0xfc, 0x03, 0x00, 0x00, 0xcc, 0x03, 0x00, 0x00, 0x7c, 0x01, 0x00, 0x00,
  0x4c, 0x01, 0x00, 0x00, 0xf4, 0x00, 0x00, 0x00, 0xec, 0x00, 0x00, 0x00,
  0xe4, 0x00, 0x00, 0x00, 0xdc, 0x00, 0x00, 0x00, 0xd4, 0x00, 0x00, 0x00,
  0xcc, 0x00, 0x00, 0x00, 0xc4, 0x00, 0x00, 0x00, 0xbc, 0x00, 0x00, 0x00,
  0xb4, 0x00, 0x00, 0x00, 0x94, 0x00, 0x00, 0x00, 0x74, 0x00, 0x00, 0x00,
  0x04, 0x00, 0x00, 0x00, 0xce, 0xed, 0xff, 0xff, 0x04, 0x00, 0x00, 0x00,
  0x60, 0x00, 0x00, 0x00, 0x0c, 0x00, 0x00, 0x00, 0x08, 0x00, 0x0e, 0x00,
  0x08, 0x00, 0x04, 0x00, 0x08, 0x00, 0x00, 0x00, 0x10, 0x00, 0x00, 0x00,
  0x28, 0x00, 0x00, 0x00, 0x00, 0x00, 0x06, 0x00, 0x08, 0x00, 0x04, 0x00,
  0x06, 0x00, 0x00, 0x00, 0x04, 0x00, 0x00, 0x00, 0x01, 0x00, 0x00, 0x00,
  0xeb, 0x03, 0x00, 0x00, 0x0c, 0x00, 0x18, 0x00, 0x14, 0x00, 0x10, 0x00,
  0x0c, 0x00, 0x04, 0x00, 0x0c, 0x00, 0x00, 0x00, 0x89, 0x18, 0x33, 0x26,
  0x7b, 0xc8, 0x2a, 0x76, 0x02, 0x00, 0x00, 0x00, 0x02, 0x00, 0x00, 0x00,
  0x04, 0x00, 0x00, 0x00, 0x06, 0x00, 0x00, 0x00, 0x32, 0x2e, 0x31, 0x38,
  0x2e, 0x30, 0x00, 0x00, 0x3a, 0xee, 0xff, 0xff, 0x04, 0x00, 0x00, 0x00,
  0x10, 0x00, 0x00, 0x00, 0x00, 0x00, 0x00, 0x00, 0x00, 0x00, 0x00, 0x00,
  0x00, 0x00, 0x00, 0x00, 0x00, 0x00, 0x00, 0x00, 0x56, 0xee, 0xff, 0xff,
  0x04, 0x00, 0x00, 0x00, 0x10, 0x00, 0x00, 0x00, 0x31, 0x2e, 0x31, 0x34,
  0x2e, 0x30, 0x00, 0x00, 0x00, 0x00, 0x00, 0x00, 0x00, 0x00, 0x00, 0x00,
  0xf8, 0xdf, 0xff, 0xff, 0xfc, 0xdf, 0xff, 0xff, 0x00, 0xe0, 0xff, 0xff,
  0x04, 0xe0, 0xff, 0xff, 0x08, 0xe0, 0xff, 0xff, 0x0c, 0xe0, 0xff, 0xff,
  0x10, 0xe0, 0xff, 0xff, 0x14, 0xe0, 0xff, 0xff, 0x92, 0xee, 0xff, 0xff,
  0x04, 0x00, 0x00, 0x00, 0x48, 0x00, 0x00, 0x00, 0x4a, 0xf8, 0x25, 0x75,
  0xfd, 0xe9, 0x08, 0x42, 0x7f, 0x61, 0x9a, 0xc2, 0x1f, 0x2f, 0x0a, 0xff,
  0x85, 0x81, 0xa6, 0x40, 0x44, 0x86, 0xaf, 0x48, 0x38, 0xa2, 0x81, 0xcf,
  0x79, 0xed, 0xc6, 0x46, 0x85, 0x81, 0x90, 0xe8, 0xae, 0x6a, 0x20, 0x7f,
  0xbd, 0x73, 0x47, 0xa3, 0x07, 0xcc, 0x9b, 0x1f, 0xeb, 0x81, 0x84, 0x46,
  0xa9, 0xef, 0x37, 0xac, 0xb8, 0xed, 0x64, 0x81, 0x48, 0xa1, 0xd4, 0xd8,
  0x91, 0x43, 0x5e, 0x28, 0x7f, 0x07, 0x21, 0xa5, 0xe6, 0xee, 0xff, 0xff,
  0x04, 0x00, 0x00, 0x00, 0x20, 0x00, 0x00, 0x00, 0xe0, 0xff, 0xff, 0xff,
  0xd9, 0xff, 0xff, 0xff, 0x0b, 0x00, 0x00, 0x00, 0xff, 0xff, 0xff, 0xff,
  0xfd, 0xff, 0xff, 0xff, 0xfc, 0xff, 0xff, 0xff, 0xd0, 0xff, 0xff, 0xff,
  0xf7, 0xff, 0xff, 0xff, 0x12, 0xef, 0xff, 0xff, 0x04, 0x00, 0x00, 0x00,
  0x40, 0x02, 0x00, 0x00, 0xea, 0x14, 0x1f, 0xf9, 0xb3, 0xa7, 0x00, 0x8b,
  0x2a, 0xa7, 0x46, 0xfc, 0x81, 0xb4, 0x2a, 0x18, 0xe7, 0x09, 0x14, 0x10,
  0xd8, 0x29, 0x0f, 0xbc, 0x13, 0x28, 0xa3, 0x43, 0xe3, 0xcf, 0x0c, 0xd0,
  0xf9, 0xf3, 0x12, 0x26, 0xd9, 0xf3, 0x22, 0x47, 0x04, 0x95, 0x4f, 0x00,
  0xcd, 0x0e, 0xc8, 0xb7, 0xf3, 0xce, 0xe4, 0x2b, 0x2f, 0xee, 0x23, 0x2d,
  0x4c, 0xe6, 0xf9, 0xbf, 0xfa, 0x2a, 0xee, 0xd2, 0x43, 0x47, 0xcf, 0x26,
  0xe8, 0x2b, 0x33, 0xf1, 0x3f, 0x18, 0xf0, 0x60, 0xb9, 0x3a, 0x8a, 0xf9,
  0x3e, 0xd9, 0xe2, 0xdb, 0x24, 0x2d, 0x05, 0x66, 0xf5, 0x35, 0x06, 0xca,
  0x43, 0xd9, 0xe4, 0x4a, 0x39, 0xeb, 0x5a, 0x17, 0x96, 0x48, 0x03, 0x8e,
  0xc4, 0xeb, 0x2a, 0x5b, 0xed, 0x0c, 0x03, 0xea, 0xe0, 0xd2, 0xb5, 0x3f,
  0x25, 0x3e, 0x10, 0x4c, 0xe7, 0x00, 0x2e, 0x07, 0x0d, 0xcd, 0x37, 0xda,
  0x19, 0x8f, 0x07, 0x6d, 0xa0, 0x7c, 0x49, 0x17, 0x95, 0xd6, 0xa6, 0x00,
  0xee, 0xa7, 0x03, 0x81, 0xdb, 0xed, 0xfe, 0xca, 0x1e, 0xb2, 0x13, 0xea,
  0xd6, 0x0b, 0xc9, 0x1c, 0xd9, 0xd6, 0x48, 0x35, 0x23, 0xf6, 0xda, 0x6d,
  0xd9, 0xcd, 0x23, 0x0b, 0x3b, 0xe8, 0xfc, 0xf3, 0x16, 0xe2, 0x2b, 0x17,
  0x21, 0xb2, 0xdd, 0xf0, 0xf9, 0x81, 0xf2, 0x2b, 0xd6, 0x4b, 0xd1, 0x2c,
  0xf9, 0xbc, 0xad, 0x36, 0xed, 0xe1, 0xd1, 0xda, 0x19, 0xca, 0xd2, 0x00,
  0x0a, 0x27, 0xe7, 0xc6, 0x12, 0xdb, 0xa2, 0x33, 0xde, 0xe3, 0xf6, 0xcd,
  0x2a, 0xd4, 0xe9, 0x2e, 0x10, 0xf8, 0x18, 0x08, 0x25, 0x68, 0xf2, 0x18,
  0xb4, 0x04, 0x1f, 0xf2, 0x2e, 0x7b, 0xf0, 0xde, 0x23, 0x31, 0x1c, 0x10,
  0x1d, 0x2f, 0xd3, 0xe9, 0x28, 0x98, 0x36, 0xe9, 0xfc, 0x3c, 0x3f, 0x25,
  0xef, 0xba, 0x50, 0xe5, 0xfe, 0xfe, 0x0f, 0x08, 0xa8, 0xaf, 0x7f, 0xae,
  0x0c, 0x27, 0xec, 0x56, 0xb3, 0xe1, 0x24, 0x07, 0x04, 0x2f, 0xe4, 0x0a,
  0x53, 0x3d, 0x1f, 0x42, 0xee, 0xe7, 0xcc, 0x37, 0xd8, 0xfc, 0x1b, 0x30,
  0xdf, 0xea, 0xe0, 0x06, 0x27, 0x28, 0x0d, 0xf3, 0x3d, 0x3d, 0x0a, 0xda,
  0x19, 0x0f, 0x3e, 0x10, 0x48, 0x58, 0xfe, 0x00, 0xea, 0xbd, 0x48, 0x3c,
  0xf6, 0xc2, 0xe8, 0xfc, 0xa4, 0x23, 0xdc, 0x22, 0xf9, 0xc0, 0x04, 0xef,
  0x3a, 0xdc, 0x01, 0x7f, 0xc9, 0xf5, 0xa0, 0x88, 0xeb, 0x42, 0xc2, 0x47,
  0xa3, 0xcb, 0xfd, 0xae, 0x09, 0xc1, 0xc0, 0x3a, 0x29, 0xfe, 0xa9, 0x4c,
  0xca, 0xbf, 0x14, 0xa9, 0xc1, 0x2a, 0x0a, 0x33, 0x10, 0xfc, 0x40, 0xf3,
  0x1a, 0x35, 0xfc, 0x34, 0x32, 0xe3, 0x95, 0xfa, 0x34, 0x1a, 0x5c, 0x1b,
  0xa3, 0x7f, 0x94, 0x1b, 0xda, 0xc4, 0x14, 0x15, 0xdc, 0x40, 0xd0, 0xd0,
  0xbf, 0xe6, 0x56, 0x1c, 0x04, 0x45, 0xc0, 0x98, 0x2c, 0xdc, 0xf3, 0xf5,
  0x1c, 0x03, 0xc0, 0xf1, 0x50, 0x1e, 0x5b, 0x9f, 0x2f, 0xf5, 0xec, 0x43,
  0x1d, 0x0a, 0x0c, 0xa4, 0x2e, 0xc5, 0x15, 0xd3, 0xd1, 0x24, 0xee, 0x23,
  0xeb, 0xd6, 0xff, 0xb6, 0xdc, 0x2e, 0xf6, 0x3d, 0x0c, 0x09, 0xea, 0x75,
  0xe7, 0x17, 0xde, 0xcf, 0xd8, 0x1f, 0x21, 0x08, 0x28, 0xcc, 0xed, 0x25,
  0x03, 0x0e, 0x2a, 0xf3, 0xc8, 0x10, 0x05, 0x1f, 0xd1, 0x11, 0xd9, 0x7f,
  0xfd, 0x05, 0x2e, 0xe2, 0x0c, 0x29, 0x11, 0xdd, 0xf5, 0x12, 0xf5, 0xbe,
  0x17, 0x24, 0x01, 0x49, 0x10, 0xfe, 0xbd, 0xdc, 0xc1, 0xe2, 0x0e, 0x1f,
  0xce, 0xd6, 0x10, 0xac, 0x30, 0x10, 0x35, 0x50, 0xfe, 0xde, 0x27, 0xdf,
  0xfe, 0xec, 0x3b, 0xc4, 0xec, 0xf9, 0x2d, 0x3a, 0xd0, 0xeb, 0xfb, 0xed,
  0xf8, 0x27, 0x2e, 0xcc, 0x50, 0x3d, 0x37, 0xb6, 0x2a, 0xea, 0x32, 0x83,
  0x46, 0xcd, 0x3f, 0x9d, 0x48, 0xd5, 0xa8, 0xbc, 0x98, 0x34, 0x18, 0x03,
  0x3c, 0x99, 0x52, 0xa1, 0x8d, 0x26, 0x37, 0x92, 0xc2, 0xb5, 0xff, 0x8f,
  0xe7, 0xdc, 0x3f, 0x74, 0xbd, 0x5f, 0x15, 0x6b, 0x22, 0x0f, 0xdb, 0xe4,
  0xbb, 0xd3, 0x74, 0x0c, 0xb5, 0xea, 0xa3, 0x08, 0x11, 0xca, 0x3b, 0xb1,
  0x88, 0x8f, 0x47, 0x56, 0xa5, 0xbb, 0x50, 0x81, 0x91, 0xfe, 0x2d, 0x20,
  0x32, 0x2a, 0x49, 0xd1, 0x5e, 0xf1, 0xff, 0xff, 0x04, 0x00, 0x00, 0x00,
  0x20, 0x00, 0x00, 0x00, 0xd2, 0xff, 0xff, 0xff, 0xf9, 0xff, 0xff, 0xff,
  0x02, 0x00, 0x00, 0x00, 0xd8, 0xff, 0xff, 0xff, 0xf7, 0xff, 0xff, 0xff,
  0x66, 0x00, 0x00, 0x00, 0x58, 0x00, 0x00, 0x00, 0x05, 0x00, 0x00, 0x00,
  0x8a, 0xf1, 0xff, 0xff, 0x04, 0x00, 0x00, 0x00, 0x80, 0x0c, 0x00, 0x00,
  0x2d, 0x81, 0xe6, 0x50, 0x0f, 0xbd, 0x24, 0xcd, 0xe0, 0xf3, 0x98, 0xdf,
  0x21, 0x2c, 0x58, 0x03, 0x11, 0xc5, 0xcf, 0x1f, 0x22, 0xcb, 0x11, 0xca,
  0xf4, 0xb5, 0xfa, 0x2b, 0x12, 0xe5, 0x2d, 0xce, 0xfa, 0x00, 0x20, 0x36,
  0xfe, 0x03, 0xec, 0xc2, 0xff, 0x02, 0xed, 0xfd, 0x12, 0xd5, 0xcf, 0xe5,
  0xce, 0xda, 0xfc, 0xf7, 0xe7, 0x23, 0x16, 0x36, 0x08, 0xe8, 0xd5, 0x01,
  0xdf, 0x5f, 0xfe, 0xd3, 0xa5, 0xcd, 0x12, 0x0a, 0xc8, 0x26, 0x18, 0xdf,
  0xdc, 0x1d, 0x0c, 0x08, 0xfe, 0x1a, 0x23, 0x2a, 0xd6, 0xcb, 0x43, 0xf5,
  0xdc, 0x08, 0xe0, 0x12, 0xc8, 0x0d, 0x09, 0x04, 0xc1, 0x2a, 0xfe, 0xe3,
  0x37, 0xfc, 0x15, 0x1c, 0x1b, 0x48, 0x16, 0x1f, 0x06, 0x06, 0x30, 0xda,
  0xd2, 0xf0, 0x1c, 0x27, 0xce, 0x09, 0xe4, 0xfc, 0x19, 0x42, 0x0b, 0xca,
  0xf1, 0x22, 0xf3, 0x23, 0x12, 0x1b, 0x9f, 0xc1, 0xd9, 0x24, 0x0a, 0x31,
  0x0d, 0x4a, 0x04, 0xc9, 0x09, 0x10, 0x43, 0x0f, 0x1c, 0xff, 0xdd, 0x13,
  0xd0, 0x1a, 0x27, 0xc8, 0xd7, 0x00, 0xf5, 0x10, 0x24, 0x46, 0x18, 0xc1,
  0x29, 0x3c, 0xf6, 0x0b, 0xd6, 0xea, 0xcc, 0xdc, 0x03, 0xcd, 0x08, 0x17,
  0xc7, 0x0c, 0xe3, 0xb3, 0x18, 0xc1, 0x16, 0xe5, 0x17, 0xd1, 0x90, 0xda,
  0xe8, 0x23, 0x25, 0x3a, 0x36, 0xfb, 0xfa, 0x0b, 0xce, 0x1b, 0x2f, 0x38,
  0x03, 0x20, 0xd4, 0x2d, 0xca, 0xfc, 0x36, 0x05, 0xcc, 0x8a, 0xce, 0x0e,
  0x12, 0xe6, 0x0d, 0x26, 0xf8, 0xf3, 0x23, 0x04, 0x33, 0x0d, 0xfc, 0xec,
  0xf3, 0x29, 0xf8, 0xf9, 0xd7, 0xfc, 0xb8, 0xbb, 0xe6, 0x20, 0x49, 0xe5,
  0x2d, 0xd9, 0x2f, 0x15, 0x25, 0x2b, 0x3e, 0x0d, 0xf0, 0xfd, 0xd6, 0xc5,
  0x12, 0xec, 0xcb, 0x42, 0x09, 0xe1, 0xa2, 0x37, 0x39, 0xd2, 0xcd, 0x30,
  0x31, 0xe1, 0x2c, 0x2f, 0xf7, 0xde, 0xd9, 0xfe, 0x02, 0xf9, 0x19, 0xf4,
  0x1f, 0x05, 0xeb, 0x0f, 0xd0, 0x05, 0x15, 0xc4, 0xf5, 0xd3, 0xfc, 0x17,
  0x39, 0xcb, 0x03, 0x1b, 0x17, 0xf5, 0xd2, 0x29, 0x3f, 0xe1, 0xde, 0xc8,
  0xfa, 0xfb, 0xb2, 0xd6, 0x20, 0xcb, 0x2b, 0x18, 0xc3, 0xb6, 0xbe, 0xf9,
  0xd0, 0x26, 0x08, 0x36, 0x0a, 0xf5, 0xd8, 0x1a, 0x35, 0xe8, 0xd2, 0xc3,
  0xd0, 0xc1, 0x81, 0x0e, 0x28, 0xb8, 0xe5, 0xf8, 0xc4, 0xe1, 0xd1, 0x11,
  0xdd, 0xc6, 0x10, 0x26, 0x0f, 0x3b, 0x04, 0xd4, 0xef, 0x1a, 0x1b, 0x30,
  0xb8, 0xf3, 0xd9, 0xe7, 0xe7, 0xbf, 0xd9, 0xec, 0x0a, 0xe7, 0xdc, 0xb5,
  0x08, 0x39, 0x08, 0x15, 0x2d, 0x0f, 0xff, 0xbf, 0x32, 0xf2, 0x01, 0xd9,
  0xf9, 0x20, 0xf9, 0x0b, 0x3f, 0xde, 0xf6, 0x26, 0x2b, 0x30, 0x22, 0x1c,
  0xca, 0x36, 0x39, 0x32, 0x17, 0x05, 0x3f, 0x10, 0xf7, 0xf0, 0xc6, 0x2e,
  0xe7, 0x25, 0x34, 0xd5, 0x27, 0x07, 0x24, 0x2b, 0xd8, 0x1b, 0x19, 0xfb,
  0xcd, 0xf5, 0x14, 0x0a, 0xfe, 0xd0, 0xea, 0x18, 0xf9, 0xce, 0xd4, 0xda,
  0x37, 0x81, 0x14, 0xc7, 0xcb, 0xdf, 0xe3, 0xbe, 0x0b, 0x00, 0x25, 0xf0,
  0x09, 0x0f, 0xf8, 0x19, 0xd3, 0xfd, 0xf0, 0xf8, 0x29, 0xf0, 0xd6, 0xee,
  0xc5, 0xf8, 0x17, 0xe4, 0x0e, 0x12, 0xf5, 0x48, 0xd5, 0xb5, 0xdc, 0x20,
  0x96, 0x1f, 0x35, 0xc8, 0xfe, 0xda, 0x07, 0xd5, 0xbd, 0x1e, 0x03, 0x0d,
  0x18, 0x10, 0x24, 0x26, 0x2d, 0xfa, 0x24, 0xd6, 0xf0, 0x6b, 0x0d, 0xe3,
  0x2d, 0xed, 0x0a, 0x1e, 0x03, 0x6b, 0x47, 0xcc, 0x69, 0xe1, 0x27, 0x43,
  0x1a, 0xe3, 0xd8, 0xf1, 0xb4, 0x2c, 0xc5, 0xa8, 0x31, 0x22, 0x19, 0xfe,
  0x00, 0xef, 0xd4, 0x14, 0x13, 0x24, 0x0f, 0x0a, 0x0f, 0x05, 0x12, 0xf6,
  0x09, 0x30, 0xb5, 0xed, 0x16, 0xed, 0xfa, 0xfe, 0x03, 0x30, 0xb5, 0x3a,
  0xe7, 0xa7, 0x08, 0xd8, 0x27, 0x01, 0xea, 0x36, 0x25, 0xd1, 0xef, 0xdb,
  0x25, 0xfc, 0xd8, 0x25, 0xf7, 0xd6, 0xe3, 0xc4, 0x05, 0x19, 0xd8, 0xeb,
  0x22, 0x0c, 0xe9, 0x2b, 0xe2, 0x05, 0x08, 0x1f, 0x06, 0x14, 0xe5, 0x16,
  0x0a, 0xdf, 0xd9, 0x14, 0xca, 0x15, 0xc6, 0xdd, 0xeb, 0xfd, 0x16, 0xfe,
  0x2e, 0xc8, 0x25, 0x13, 0x3e, 0x28, 0xe9, 0xf6, 0x26, 0x16, 0xd8, 0xdd,
  0xf0, 0xf9, 0xf0, 0x26, 0xea, 0xf4, 0x33, 0xdd, 0x31, 0xf4, 0x2e, 0xf2,
  0x13, 0x04, 0xeb, 0xea, 0xce, 0xed, 0x23, 0xe3, 0x06, 0x1e, 0xea, 0x2a,
  0x24, 0xb6, 0xcb, 0x07, 0x23, 0xda, 0x25, 0x16, 0xff, 0xf7, 0x31, 0xd1,
  0x0d, 0xc7, 0xcc, 0xb0, 0x02, 0xfc, 0xfa, 0x45, 0x3a, 0xb0, 0xc4, 0x3d,
  0x06, 0xc9, 0x1c, 0x3f, 0x17, 0x16, 0xaf, 0xe4, 0x2b, 0x06, 0xf9, 0x19,
  0xf7, 0xe1, 0x24, 0x5e, 0xda, 0xd2, 0x32, 0x2b, 0x76, 0xff, 0xb5, 0xd2,
  0xaf, 0xce, 0x07, 0x25, 0x09, 0x21, 0xe8, 0x1a, 0x38, 0x3a, 0xf3, 0x3f,
  0xeb, 0xcd, 0x10, 0x1c, 0x36, 0xed, 0xdb, 0x29, 0x34, 0x20, 0xa6, 0xd0,
  0xbf, 0x0a, 0x2e, 0x1d, 0x49, 0xff, 0xd9, 0xbb, 0xce, 0x2b, 0x11, 0x59,
  0xdb, 0x2b, 0xc8, 0xd2, 0x41, 0xbb, 0xe8, 0x14, 0xed, 0x17, 0x9f, 0xd7,
  0x0d, 0xc3, 0x47, 0x2d, 0xd2, 0xea, 0xf4, 0xfc, 0x04, 0xee, 0x23, 0x37,
  0x04, 0xf1, 0x0c, 0xbc, 0xe6, 0xd5, 0x04, 0xed, 0x43, 0xdb, 0xfa, 0x18,
  0x2c, 0x22, 0x79, 0x09, 0xde, 0x37, 0x96, 0x24, 0x88, 0xbc, 0x2f, 0xdf,
  0xb9, 0xac, 0xf4, 0x21, 0xec, 0xa8, 0x6c, 0xee, 0xaf, 0xff, 0x11, 0xc1,
  0xe6, 0x3b, 0xb7, 0x43, 0xc8, 0xf6, 0xda, 0xec, 0xf3, 0x29, 0xb6, 0x43,
  0xf4, 0xce, 0xf3, 0x19, 0xc6, 0xca, 0xd6, 0x0b, 0x9e, 0x25, 0xc8, 0xbf,
  0xc6, 0xf3, 0xf0, 0x1a, 0xa6, 0x25, 0xeb, 0xfb, 0x35, 0xcd, 0x24, 0x58,
  0xc2, 0x2e, 0x81, 0x2f, 0xf6, 0xee, 0x3a, 0x34, 0x09, 0xf8, 0xd2, 0xc3,
  0x13, 0xbb, 0xec, 0x06, 0xc4, 0x35, 0xf9, 0x18, 0x37, 0x3e, 0xe9, 0x07,
  0x1a, 0xbc, 0x95, 0x26, 0x0f, 0xf9, 0xbb, 0x81, 0x15, 0x21, 0x53, 0xed,
  0x1b, 0x51, 0x8f, 0xcc, 0x21, 0x30, 0xa3, 0xba, 0x9a, 0x02, 0x4a, 0xce,
  0x18, 0xf8, 0x3e, 0x05, 0x36, 0xbb, 0xe2, 0xe3, 0x2a, 0x1c, 0xb8, 0xa7,
  0x1a, 0x35, 0x87, 0x8c, 0xa7, 0xb9, 0x09, 0xa2, 0x93, 0x8a, 0xcb, 0xfe,
  0xf8, 0x1b, 0xd5, 0xf0, 0xed, 0x1c, 0xaf, 0x33, 0xbf, 0xac, 0x2a, 0x45,
  0x89, 0xd5, 0x9d, 0x2d, 0x40, 0x52, 0x40, 0x16, 0xbb, 0x3f, 0x9b, 0xfe,
  0x38, 0xc1, 0xa5, 0x64, 0x05, 0xe0, 0xfe, 0x1e, 0x10, 0xb1, 0xe6, 0xb6,
  0xea, 0x1e, 0xa0, 0x93, 0x16, 0x03, 0x1d, 0x48, 0x53, 0x68, 0xff, 0x3f,
  0x16, 0x3f, 0xdf, 0x36, 0xf2, 0xe8, 0x15, 0xea, 0xfb, 0xc5, 0xa8, 0xaf,
  0xf4, 0xdb, 0xdc, 0x8d, 0x15, 0xc6, 0x3a, 0xb4, 0x93, 0xf5, 0xdf, 0x1d,
  0x4d, 0xae, 0x4a, 0xf4, 0x2d, 0x26, 0x0c, 0xd3, 0x48, 0x44, 0x25, 0x14,
  0x3b, 0xe9, 0xf2, 0x17, 0x43, 0x18, 0x11, 0xaa, 0x08, 0x3f, 0x16, 0xfc,
  0x0a, 0x4e, 0xd3, 0xdd, 0x17, 0xa1, 0xab, 0xe8, 0xeb, 0x4c, 0x24, 0x28,
  0x40, 0x28, 0x3d, 0x24, 0x2b, 0xbd, 0x86, 0x06, 0xe1, 0x96, 0x0e, 0x93,
  0xdb, 0x59, 0x33, 0x4b, 0xe1, 0x3a, 0x41, 0xb6, 0x4b, 0x1e, 0xcc, 0x6a,
  0x09, 0x87, 0xb9, 0xd7, 0x42, 0xbd, 0x9b, 0xb0, 0xc5, 0x1a, 0xe5, 0xc8,
  0x94, 0x06, 0x94, 0xf5, 0x4c, 0xf4, 0x11, 0x24, 0x25, 0x29, 0x60, 0x0a,
  0x07, 0x00, 0xfe, 0x0c, 0x25, 0xe3, 0x5c, 0xf8, 0x06, 0xae, 0x06, 0x10,
  0x1a, 0xd2, 0x3d, 0xda, 0xfe, 0xdd, 0x00, 0xf3, 0x33, 0xfb, 0x2a, 0x1d,
  0x16, 0xd0, 0xe5, 0xbf, 0x25, 0xf5, 0x23, 0xd8, 0x0c, 0x1f, 0xe4, 0x13,
  0xf6, 0xe6, 0xe2, 0xdb, 0x00, 0x29, 0x19, 0x23, 0x15, 0xf3, 0xf7, 0x0e,
  0xff, 0x50, 0x02, 0x0a, 0x1a, 0xae, 0x09, 0x16, 0x31, 0x1e, 0x38, 0x1b,
  0x0f, 0xd8, 0xec, 0x02, 0x17, 0x0b, 0x20, 0x03, 0xf3, 0xfa, 0x2c, 0x40,
  0xb9, 0x2c, 0x32, 0xe1, 0x08, 0xe7, 0xb2, 0xde, 0x03, 0x22, 0xd9, 0xee,
  0x0f, 0x06, 0x09, 0x1d, 0xcf, 0x0e, 0xb7, 0xe6, 0xe5, 0xf9, 0x08, 0xf2,
  0x18, 0x21, 0xfc, 0xe7, 0x05, 0xe9, 0xd9, 0xed, 0xec, 0xe3, 0xf9, 0x0f,
  0x27, 0x1b, 0x26, 0xea, 0xb3, 0x12, 0xea, 0xfb, 0xeb, 0xbe, 0x24, 0x0d,
  0x0f, 0x31, 0x04, 0xfe, 0x23, 0x24, 0x34, 0x52, 0xd4, 0xc6, 0x02, 0xe0,
  0xea, 0x1d, 0x2f, 0x0b, 0x08, 0xd6, 0x3f, 0xdd, 0xd9, 0xdb, 0x0a, 0x12,
  0xf5, 0x1f, 0x18, 0x1a, 0x0d, 0x17, 0x13, 0xec, 0x33, 0xe4, 0xeb, 0xb2,
  0xd7, 0x24, 0x4d, 0x20, 0xa4, 0xe2, 0xd7, 0xd0, 0x1b, 0x1d, 0x7f, 0xfd,
  0xf5, 0xe3, 0xc8, 0xbd, 0x02, 0x4f, 0x1e, 0xec, 0xdc, 0x0c, 0xc1, 0xbc,
  0xf6, 0x3a, 0x31, 0x3c, 0xfd, 0xe7, 0xd6, 0xc6, 0x07, 0x08, 0x28, 0x19,
  0x9a, 0x35, 0xd3, 0xce, 0xf8, 0x98, 0x2d, 0x50, 0x89, 0xba, 0x29, 0xfa,
  0x2b, 0xf8, 0xef, 0x06, 0x98, 0xad, 0xdc, 0x82, 0xf7, 0xa5, 0x3a, 0x61,
  0xee, 0xcc, 0x20, 0xa6, 0x39, 0xcf, 0x22, 0xd6, 0x06, 0x43, 0xa7, 0x1d,
  0xf4, 0x18, 0x4b, 0x53, 0x97, 0x48, 0xe0, 0xb2, 0x0e, 0x3c, 0x02, 0xb8,
  0x14, 0x34, 0x38, 0xbd, 0x1f, 0xe6, 0x4c, 0x44, 0xa5, 0xe8, 0x45, 0x2f,
  0x2e, 0x13, 0x91, 0xc3, 0xf0, 0xfe, 0xdc, 0xe5, 0xfd, 0x1e, 0xf7, 0x51,
  0x18, 0xbb, 0xfe, 0x86, 0x13, 0x49, 0x52, 0xdf, 0x01, 0xdf, 0x4a, 0xbd,
  0xe4, 0x5f, 0xc6, 0x5b, 0x2d, 0x2b, 0xd5, 0xfa, 0x1d, 0xc4, 0xe2, 0xcb,
  0xd6, 0x43, 0xd8, 0xfa, 0x1e, 0xb7, 0xf3, 0x10, 0xde, 0xc0, 0xf6, 0x93,
  0xde, 0xb2, 0xd0, 0xd8, 0x0a, 0x2a, 0xb3, 0x3b, 0xd4, 0xe8, 0x91, 0x17,
  0xf1, 0x45, 0xfa, 0xc3, 0xc7, 0x4f, 0xa1, 0x34, 0xa9, 0xb2, 0xbc, 0x2c,
  0x2e, 0x9f, 0x93, 0x39, 0x90, 0xee, 0x43, 0xde, 0xb4, 0x3d, 0xcb, 0xeb,
  0x97, 0xc3, 0xf7, 0xe3, 0x4c, 0xeb, 0xa1, 0xa6, 0xc9, 0x15, 0x52, 0x2b,
  0xab, 0xbb, 0x49, 0xeb, 0xd3, 0x30, 0x8c, 0xf6, 0x3b, 0x18, 0xfc, 0xc1,
  0x43, 0xd6, 0xe3, 0x41, 0x0f, 0xb6, 0x22, 0xe0, 0xbf, 0xe1, 0x4b, 0x2a,
  0x1d, 0xd3, 0x14, 0xf3, 0xbc, 0x09, 0x9b, 0xe8, 0xa7, 0xd6, 0xbc, 0xc4,
  0x54, 0xcd, 0x01, 0x2d, 0x92, 0x81, 0xaa, 0xf2, 0xf5, 0x47, 0xd4, 0x11,
  0xe4, 0x23, 0x1d, 0xc8, 0x13, 0x22, 0xf2, 0x1e, 0xd2, 0xa2, 0xf3, 0x10,
  0x02, 0x0e, 0xed, 0x2c, 0xfd, 0xce, 0x1f, 0x34, 0xfa, 0x2a, 0x22, 0x20,
  0x02, 0x02, 0x06, 0x30, 0xe3, 0xeb, 0x01, 0xf6, 0xc1, 0xff, 0x13, 0xbd,
  0x17, 0x30, 0xbf, 0x2f, 0x4f, 0xe1, 0xcb, 0xe4, 0xe8, 0x20, 0xc8, 0x3c,
  0x45, 0xeb, 0x14, 0x34, 0x01, 0x22, 0xe2, 0x03, 0x1c, 0xf4, 0xda, 0x18,
  0xdd, 0xf2, 0x10, 0xe6, 0xfc, 0x03, 0x18, 0xfb, 0xe6, 0x11, 0x0a, 0xea,
  0xd1, 0x20, 0xdd, 0xee, 0xf9, 0x46, 0xe1, 0x01, 0x44, 0x12, 0x29, 0x1a,
  0x45, 0x34, 0xf7, 0xd5, 0x49, 0xc5, 0xe4, 0x0b, 0x52, 0xf8, 0x05, 0xcf,
  0x31, 0xd7, 0x0d, 0xf1, 0x0f, 0xc4, 0x0b, 0xf2, 0xf8, 0x15, 0x1f, 0x24,
  0xf0, 0xe1, 0xfe, 0x23, 0x39, 0x33, 0xd4, 0xf8, 0x37, 0xd9, 0xf6, 0xfd,
  0x1b, 0xce, 0x7f, 0xd2, 0x1e, 0x25, 0x1b, 0x0d, 0x04, 0xcc, 0x18, 0xeb,
  0xf6, 0xe7, 0xe3, 0xfb, 0x08, 0xc8, 0x25, 0x14, 0x2f, 0xf3, 0x1e, 0xed,
  0x32, 0x10, 0xfe, 0x0d, 0x28, 0x11, 0xff, 0xe9, 0xf4, 0x0c, 0x12, 0xdd,
  0x14, 0x00, 0xf3, 0xe7, 0x03, 0x12, 0x18, 0xff, 0x09, 0x10, 0x1f, 0xe0,
  0xfc, 0xf9, 0x50, 0xee, 0xf9, 0x1a, 0xf6, 0x12, 0x14, 0xfb, 0x1c, 0xf5,
  0x2c, 0xec, 0xfa, 0x22, 0x0f, 0x16, 0xf5, 0x04, 0x43, 0x3d, 0x2a, 0x33,
  0x01, 0xe7, 0xfa, 0xde, 0xef, 0x13, 0x95, 0x28, 0x8c, 0x28, 0x37, 0x37,
  0x07, 0x02, 0xe4, 0x51, 0xbb, 0x48, 0x1f, 0x98, 0x10, 0x1c, 0xd3, 0xc3,
  0x11, 0x44, 0x14, 0x15, 0xf8, 0x5a, 0x05, 0xee, 0x38, 0x95, 0xf5, 0x11,
  0x32, 0x26, 0x14, 0x10, 0x02, 0x47, 0xca, 0xb2, 0xed, 0x15, 0x2f, 0x21,
  0x0c, 0x0a, 0x5b, 0x0e, 0x03, 0x0a, 0xd4, 0xaa, 0xb7, 0x09, 0xbf, 0xa5,
  0x16, 0xf8, 0xd9, 0x04, 0xd1, 0xf2, 0x05, 0x1d, 0xf5, 0x1e, 0x0f, 0x15,
  0xdf, 0xa7, 0x2b, 0xf5, 0x3c, 0x4f, 0xd3, 0x32, 0x3f, 0xd5, 0x9c, 0x05,
  0xc3, 0xef, 0xb3, 0x16, 0x42, 0x04, 0xcd, 0x42, 0x4a, 0x9c, 0xe9, 0xb2,
  0xda, 0x38, 0xa8, 0xb5, 0x1b, 0x92, 0x02, 0x55, 0xb7, 0x04, 0xa9, 0x9a,
  0x01, 0x25, 0x8f, 0x81, 0x09, 0xcb, 0x32, 0x2e, 0x10, 0x48, 0xfa, 0x00,
  0xa6, 0xd8, 0x00, 0xf3, 0x30, 0xb7, 0x02, 0xf8, 0x14, 0x25, 0xeb, 0x41,
  0x0c, 0xc3, 0x3f, 0x34, 0x20, 0xa6, 0x55, 0xad, 0xe6, 0x09, 0xe7, 0x4d,
  0x2c, 0xca, 0xdd, 0x0a, 0x04, 0xa4, 0x1e, 0x96, 0x9d, 0xf4, 0xa8, 0xd5,
  0x0f, 0x48, 0x17, 0xa1, 0xec, 0x24, 0xfb, 0xf1, 0x27, 0x3f, 0xa9, 0xa0,
  0x98, 0x96, 0xad, 0xcc, 0xab, 0x91, 0xc1, 0xf2, 0x3f, 0x94, 0x33, 0x32,
  0x94, 0xf3, 0x0d, 0x39, 0xf6, 0x98, 0xca, 0x3a, 0xd9, 0x54, 0xa7, 0xe5,
  0xdf, 0xfe, 0xf7, 0x97, 0x43, 0x37, 0x2e, 0x02, 0xce, 0x3c, 0x55, 0x94,
  0xce, 0xb2, 0x64, 0x2e, 0x31, 0x3f, 0x38, 0x5a, 0x42, 0x18, 0x9a, 0xe8,
  0xab, 0xff, 0xe7, 0x2d, 0x51, 0xda, 0x12, 0x8e, 0x0e, 0x2e, 0x2e, 0x53,
  0x29, 0x3e, 0x33, 0x11, 0xb9, 0x19, 0x05, 0xd6, 0xa7, 0xbd, 0x25, 0xaf,
  0xa0, 0x40, 0xa8, 0xb9, 0xdb, 0xdd, 0xb9, 0xfb, 0xd0, 0xb2, 0xb9, 0x17,
  0x3b, 0x16, 0xcd, 0xdf, 0x06, 0x4c, 0x21, 0xf0, 0xc1, 0xca, 0xa0, 0x43,
  0x02, 0x54, 0x37, 0x5b, 0x55, 0x45, 0xaa, 0x1d, 0x4b, 0xe8, 0x2d, 0x29,
  0x44, 0x13, 0xaf, 0x0b, 0x1a, 0xa6, 0xfb, 0xd2, 0xba, 0x42, 0xf2, 0xa3,
  0x04, 0xb1, 0x77, 0xd9, 0x31, 0x5e, 0xd7, 0xa7, 0x07, 0x46, 0xa6, 0x02,
  0x56, 0xac, 0x1b, 0x13, 0x23, 0xc5, 0xc7, 0x29, 0x94, 0xf2, 0x96, 0x43,
  0xa6, 0xb2, 0xb2, 0x0d, 0xe9, 0x26, 0xa9, 0xe2, 0x15, 0xd0, 0x52, 0xba,
  0xc2, 0x0a, 0x0b, 0xac, 0x4c, 0x0c, 0x11, 0x9f, 0x49, 0xbb, 0x1f, 0x81,
  0x94, 0x5a, 0x4e, 0x4d, 0xd4, 0x21, 0x38, 0x15, 0x30, 0xc1, 0x37, 0xa9,
  0x41, 0x06, 0x56, 0xa9, 0xcb, 0xd0, 0xac, 0xa0, 0x43, 0xe1, 0xe4, 0xe2,
  0x57, 0xf8, 0x22, 0xb8, 0x14, 0xab, 0x39, 0x2b, 0x58, 0x4b, 0xfc, 0x48,
  0xc8, 0xe9, 0x09, 0xdf, 0xef, 0xa2, 0x0c, 0xda, 0xd9, 0xce, 0x8e, 0x36,
  0xae, 0x47, 0xea, 0xab, 0x95, 0xee, 0x13, 0xa5, 0xae, 0x32, 0x2e, 0xdf,
  0x97, 0x93, 0xb4, 0x10, 0x36, 0x3f, 0x05, 0xbd, 0xa3, 0x30, 0x81, 0x0c,
  0x0a, 0x4d, 0x1a, 0xee, 0xb4, 0xad, 0x23, 0xc5, 0x46, 0x39, 0xed, 0xbc,
  0xe5, 0xc3, 0x14, 0xf0, 0xf9, 0x62, 0xe3, 0x35, 0xe6, 0x1c, 0xdf, 0x0b,
  0x9f, 0x43, 0xdb, 0x01, 0x39, 0xc0, 0xd6, 0x29, 0xc9, 0xe8, 0x01, 0x67,
  0x2c, 0x30, 0xa5, 0x1b, 0xc1, 0x56, 0x2c, 0xb8, 0x1f, 0xb0, 0xe4, 0x03,
  0x07, 0xe9, 0x02, 0xb8, 0x44, 0xc8, 0x47, 0xba, 0xaf, 0x2c, 0x5c, 0xa0,
  0xc7, 0xdc, 0x40, 0x0f, 0x1a, 0x27, 0x51, 0x21, 0xe1, 0xeb, 0x23, 0xcb,
  0x45, 0xd1, 0xe2, 0xbb, 0xdc, 0xfa, 0xd4, 0xc2, 0xfc, 0x60, 0x33, 0x3f,
  0xe3, 0xf1, 0x96, 0x05, 0x03, 0xfd, 0xec, 0xbb, 0xb7, 0xb9, 0x2a, 0x94,
  0xb6, 0xd4, 0x58, 0xa2, 0x1b, 0x5b, 0x34, 0xf2, 0xcb, 0x60, 0x71, 0x02,
  0xd7, 0x2e, 0xd6, 0xca, 0x09, 0xf6, 0xd0, 0x4e, 0x14, 0xe4, 0xf4, 0xc4,
  0xdc, 0x1a, 0xc3, 0x43, 0x4c, 0x42, 0x04, 0xda, 0xc4, 0x1d, 0x46, 0x08,
  0xdf, 0x87, 0xdc, 0xb8, 0x21, 0xf8, 0x3a, 0xe7, 0xec, 0x41, 0xf9, 0x09,
  0x23, 0x74, 0x66, 0x19, 0xb0, 0xbb, 0xc8, 0xf0, 0xa7, 0x23, 0x46, 0x4b,
  0x17, 0x10, 0xe9, 0xdf, 0x0f, 0xfc, 0x50, 0xa5, 0xa4, 0x93, 0xea, 0xb8,
  0x09, 0x79, 0x06, 0x3c, 0xc8, 0xd3, 0xf2, 0xeb, 0x2f, 0x2e, 0x15, 0x48,
  0xab, 0xe5, 0xee, 0x27, 0xca, 0x6e, 0xb8, 0x33, 0xeb, 0xa8, 0xe3, 0xf6,
  0xa4, 0xec, 0xfe, 0x19, 0xfe, 0x0d, 0x29, 0x27, 0xca, 0xe7, 0xbd, 0xe7,
  0xea, 0x0c, 0x0e, 0xdf, 0x37, 0x0f, 0x9a, 0x04, 0x07, 0x11, 0x1d, 0xf5,
  0x34, 0x02, 0x15, 0xe7, 0x06, 0x38, 0xf8, 0x1b, 0x1f, 0xf9, 0x39, 0xd6,
  0x05, 0xe1, 0xfb, 0xfb, 0xe8, 0x0f, 0x28, 0xfd, 0x19, 0x49, 0x01, 0x1c,
  0xf1, 0xf7, 0x20, 0x30, 0x15, 0x22, 0x1a, 0xd8, 0x24, 0xfb, 0xe1, 0xdd,
  0x38, 0x21, 0x2c, 0x1a, 0xfa, 0xb7, 0xc6, 0x47, 0xda, 0xdf, 0x0a, 0x23,
  0xe2, 0xcd, 0xe0, 0x1c, 0xcc, 0xc1, 0xb9, 0x65, 0x81, 0x14, 0xd0, 0xda,
  0x33, 0xe2, 0x2e, 0xd1, 0xfe, 0xdd, 0x72, 0xe0, 0x01, 0x07, 0x2f, 0x0b,
  0xe4, 0x0e, 0x46, 0xdf, 0x1f, 0x09, 0x06, 0x33, 0x0d, 0xe7, 0x35, 0x23,
  0x0c, 0x05, 0xaf, 0xe2, 0x07, 0xd7, 0xc8, 0x1b, 0xb0, 0xca, 0x17, 0xe4,
  0xdc, 0xda, 0x95, 0xac, 0xa9, 0xcc, 0xd1, 0xde, 0xdc, 0x07, 0x0a, 0xff,
  0xcd, 0x15, 0x1c, 0x0b, 0x0f, 0x2a, 0x1c, 0xb5, 0x1d, 0x0f, 0x0a, 0x03,
  0x02, 0x55, 0x2c, 0x29, 0xf7, 0xb8, 0xcc, 0x0a, 0xea, 0xff, 0xa4, 0xcf,
  0xe5, 0xde, 0x1a, 0xf3, 0x07, 0x12, 0xe5, 0x3e, 0x10, 0xfa, 0x0c, 0x10,
  0xef, 0x61, 0xe5, 0x14, 0xe3, 0x00, 0x13, 0x2c, 0x04, 0x0a, 0x0d, 0x11,
  0x4b, 0x05, 0xf1, 0x00, 0xf4, 0x1c, 0xf7, 0x0c, 0x18, 0x0a, 0x27, 0x07,
  0x18, 0x2e, 0x10, 0x65, 0x17, 0x20, 0xf1, 0xd0, 0x31, 0xf6, 0x39, 0x21,
  0x1c, 0x04, 0xfe, 0x24, 0xf9, 0xf9, 0xe9, 0xfa, 0xf9, 0x03, 0x0e, 0x37,
  0x10, 0x09, 0x81, 0x05, 0xfd, 0x12, 0x25, 0x24, 0x2e, 0x04, 0xe8, 0x28,
  0x06, 0x15, 0x31, 0x0e, 0x35, 0xfa, 0x02, 0x0d, 0xe0, 0xe2, 0x09, 0xeb,
  0x0a, 0x19, 0x17, 0xe5, 0x07, 0x36, 0x09, 0x2d, 0x32, 0xd6, 0xe3, 0x1a,
  0xe7, 0x02, 0xf5, 0x38, 0x37, 0xe4, 0xce, 0xf9, 0xf9, 0x00, 0x1c, 0x19,
  0x24, 0xbe, 0xeb, 0xfb, 0xeb, 0xf8, 0x12, 0x20, 0x20, 0xdf, 0x1e, 0x00,
  0x04, 0x0f, 0xfd, 0x13, 0xf9, 0x0c, 0xf8, 0xe4, 0xd5, 0xff, 0xd7, 0xf3,
  0xff, 0x05, 0x32, 0x17, 0x17, 0x05, 0xdd, 0x03, 0x12, 0x22, 0xee, 0xf0,
  0x0e, 0x0f, 0x23, 0x04, 0x16, 0xd5, 0xe9, 0xdb, 0x22, 0x03, 0x22, 0xf6,
  0xfc, 0x13, 0x07, 0xe5, 0xe6, 0x0d, 0xee, 0x20, 0x0c, 0x1e, 0xe1, 0x03,
  0x48, 0xf0, 0xdb, 0x1c, 0xf5, 0xf8, 0x03, 0xcc, 0xfb, 0x1d, 0x0d, 0x30,
  0xfa, 0x1d, 0xe9, 0xf9, 0x0d, 0x14, 0xec, 0x1a, 0x13, 0xd3, 0xf8, 0xe8,
  0x0f, 0xe8, 0xd5, 0x0b, 0xfe, 0xe8, 0xf6, 0xe0, 0xef, 0xd5, 0xe4, 0xf7,
  0xe5, 0xfc, 0x00, 0xf7, 0x30, 0x05, 0xe8, 0x00, 0xf5, 0x24, 0xd7, 0xf5,
  0x21, 0x00, 0x02, 0xfb, 0x20, 0xf5, 0xfc, 0xe5, 0x2b, 0x15, 0xf2, 0xfb,
  0xf9, 0x01, 0xf3, 0xff, 0xf7, 0xe6, 0xf9, 0xf6, 0x03, 0x0f, 0xf3, 0xe9,
  0xff, 0xf6, 0xee, 0xbe, 0xe4, 0x19, 0xe0, 0x0b, 0xf3, 0x42, 0x5c, 0xf1,
  0xb1, 0xf3, 0x11, 0xf2, 0x4e, 0x3c, 0x20, 0xa9, 0x16, 0x9c, 0x4e, 0x9e,
  0xe0, 0x43, 0x41, 0xf0, 0x1d, 0xd9, 0x97, 0xba, 0xac, 0x89, 0x18, 0xfd,
  0xfd, 0x88, 0x86, 0x14, 0xf0, 0xfc, 0x4d, 0xbe, 0xc9, 0x3a, 0xc0, 0x66,
  0x66, 0xa7, 0x29, 0xd4, 0xbf, 0x54, 0x4c, 0x8c, 0x3e, 0xb2, 0xa8, 0x08,
  0x14, 0xd1, 0x11, 0x93, 0x8e, 0x30, 0x31, 0xce, 0x09, 0x16, 0xd1, 0x0c,
  0x44, 0xf4, 0xea, 0xaa, 0x9c, 0x8b, 0x54, 0xd3, 0x87, 0xa7, 0xef, 0x22,
  0x08, 0x46, 0xf3, 0xff, 0x9b, 0x8b, 0x0c, 0xaf, 0xaf, 0xfe, 0xec, 0x44,
  0x05, 0x4b, 0x06, 0x21, 0x19, 0x19, 0xaa, 0x93, 0x0f, 0x84, 0xe2, 0x1d,
  0x39, 0xf7, 0x0b, 0x57, 0x52, 0xbc, 0xbc, 0x1a, 0x39, 0x55, 0xff, 0xd0,
  0xad, 0x17, 0x81, 0x4b, 0xe6, 0xb1, 0x98, 0x90, 0x65, 0x9c, 0x0c, 0x02,
  0x95, 0x03, 0x10, 0x37, 0xbe, 0x3e, 0x15, 0x1d, 0xd3, 0x23, 0x99, 0xfd,
  0xc0, 0xfb, 0xf1, 0x82, 0x4c, 0xd9, 0xf8, 0xe7, 0x04, 0x0c, 0xa1, 0x06,
  0xdc, 0xab, 0x9f, 0x2e, 0x49, 0x83, 0x5e, 0x2c, 0xd8, 0x5d, 0x08, 0x52,
  0x8c, 0x8b, 0x49, 0xa5, 0xa6, 0x8a, 0xae, 0x9d, 0xe4, 0x12, 0x88, 0x88,
  0xfa, 0x60, 0xa6, 0x9a, 0xc4, 0x08, 0x93, 0xbe, 0xa0, 0x52, 0xc2, 0x08,
  0xf7, 0xe8, 0x07, 0xa3, 0xeb, 0xce, 0x8d, 0x0c, 0x49, 0xc1, 0x19, 0xa0,
  0x23, 0x0e, 0xa4, 0xcb, 0x11, 0x2e, 0xff, 0x2c, 0x33, 0xe3, 0x1d, 0x51,
  0xf3, 0x8b, 0xc4, 0xa9, 0x91, 0x39, 0x1e, 0xf7, 0xe4, 0xdf, 0x00, 0xee,
  0xf6, 0x15, 0x2d, 0x49, 0xce, 0x08, 0x36, 0xfd, 0x31, 0xe3, 0x05, 0x4d,
  0x0a, 0x24, 0x0c, 0xf6, 0xdb, 0xeb, 0xfc, 0x5b, 0x00, 0xfd, 0xe4, 0x05,
  0xc8, 0x31, 0x5c, 0x24, 0xe8, 0xf3, 0x37, 0xad, 0x0e, 0x36, 0x0c, 0xa2,
  0xdd, 0xd7, 0xfe, 0xf9, 0x14, 0xf2, 0x4d, 0xe8, 0x20, 0xe3, 0xfe, 0x00,
  0x37, 0x0d, 0x29, 0x40, 0x56, 0xfa, 0xd4, 0xd9, 0x3f, 0x0b, 0x1d, 0x2a,
  0xc7, 0x02, 0x30, 0xc7, 0xee, 0x0f, 0xe0, 0xe1, 0xdb, 0xc9, 0x0e, 0xae,
  0xa2, 0x42, 0x51, 0x26, 0x0d, 0xba, 0x5e, 0xe0, 0x1b, 0x0c, 0xde, 0x95,
  0x42, 0x2a, 0xb4, 0x2a, 0x05, 0xff, 0x21, 0x37, 0x07, 0xce, 0xf5, 0x35,
  0x1d, 0xba, 0x1c, 0xf0, 0x81, 0x1d, 0xfa, 0x06, 0x9c, 0xf3, 0xdc, 0x5d,
  0x9f, 0x9b, 0xf7, 0xe4, 0xd5, 0x42, 0xd9, 0xfd, 0xc4, 0x02, 0x20, 0xf0,
  0xd0, 0xf2, 0x2a, 0xe9, 0x2e, 0xed, 0x1f, 0x24, 0x1c, 0xe2, 0xd4, 0xda,
  0xb9, 0xcf, 0x18, 0x04, 0xe8, 0xf4, 0xd9, 0x2a, 0xd0, 0xea, 0xbe, 0x20,
  0xdf, 0x22, 0xf5, 0xf1, 0x3f, 0xe1, 0x2b, 0x0f, 0xea, 0xca, 0xb4, 0x1e,
  0x40, 0x1e, 0xda, 0x1e, 0xbc, 0x1e, 0x41, 0x71, 0x00, 0x22, 0x3b, 0x37,
  0x17, 0x3a, 0x36, 0x24, 0x06, 0xe8, 0xcc, 0xdc, 0x08, 0x42, 0xdf, 0xd3,
  0x41, 0x1a, 0xc6, 0x5a, 0xa8, 0xbd, 0xc3, 0xb6, 0x24, 0x36, 0xf6, 0x16,
  0x16, 0x44, 0xcd, 0xbb, 0x8e, 0x05, 0xf9, 0x1d, 0x9d, 0x43, 0x94, 0xd0,
  0x28, 0xfe, 0xdc, 0x1e, 0x8d, 0x2c, 0x15, 0x94, 0x34, 0x05, 0x2d, 0x24,
  0xe2, 0xa1, 0x02, 0xe0, 0x57, 0x42, 0x26, 0x0d, 0xe0, 0xbc, 0xc0, 0x2b,
  0x10, 0x22, 0x82, 0x35, 0x23, 0xeb, 0x45, 0xa5, 0xf4, 0x29, 0xeb, 0xf1,
  0x5e, 0x14, 0xec, 0x9f, 0xbf, 0xed, 0x22, 0xe5, 0xa0, 0x1b, 0xb7, 0xf9,
  0x91, 0x4e, 0xca, 0x1d, 0x00, 0x9b, 0x10, 0x44, 0x21, 0x27, 0x0b, 0xa6,
  0xd5, 0x8c, 0xa3, 0x1c, 0xd7, 0x94, 0x96, 0x14, 0x1b, 0x5e, 0x2b, 0xda,
  0xe5, 0x34, 0x90, 0xa0, 0x49, 0xfd, 0xef, 0xb3, 0x49, 0x95, 0x1b, 0xb9,
  0x32, 0x1f, 0x45, 0x04, 0x26, 0xf1, 0x3b, 0xe8, 0xda, 0xd1, 0x8f, 0xfd,
  0xbb, 0xff, 0x34, 0xf0, 0x96, 0x8d, 0x4e, 0xfd, 0x5b, 0xbe, 0x56, 0x44,
  0xd2, 0xd2, 0xdd, 0xd3, 0x2c, 0x4e, 0x98, 0xce, 0x90, 0x4b, 0x53, 0x2a,
  0xf6, 0xa5, 0x8d, 0x3b, 0x10, 0xd3, 0x11, 0x55, 0x3a, 0x26, 0xc1, 0x88,
  0x4e, 0xe8, 0x38, 0x45, 0xaa, 0x42, 0xa6, 0xaa, 0x9d, 0xa3, 0x4b, 0xea,
  0x4d, 0xc2, 0x33, 0x42, 0xd2, 0x21, 0xeb, 0x51, 0x14, 0x49, 0xa6, 0x81,
  0x5d, 0x45, 0xbc, 0x26, 0xcc, 0x95, 0x2c, 0xa6, 0x08, 0xab, 0x50, 0xf6,
  0xc9, 0xee, 0xb4, 0x1e, 0x0e, 0x0e, 0x13, 0x01, 0x16, 0xfe, 0xff, 0xff,
  0x04, 0x00, 0x00, 0x00, 0x40, 0x00, 0x00, 0x00, 0x08, 0x00, 0x00, 0x00,
  0xf9, 0xff, 0xff, 0xff, 0xec, 0xff, 0xff, 0xff, 0xa3, 0xff, 0xff, 0xff,
  0x86, 0xff, 0xff, 0xff, 0x45, 0x00, 0x00, 0x00, 0x87, 0xff, 0xff, 0xff,
  0x29, 0x00, 0x00, 0x00, 0xbf, 0xff, 0xff, 0xff, 0xaf, 0xff, 0xff, 0xff,
  0xbc, 0x00, 0x00, 0x00, 0x22, 0x00, 0x00, 0x00, 0xaa, 0xff, 0xff, 0xff,
  0xae, 0xff, 0xff, 0xff, 0x67, 0x00, 0x00, 0x00, 0xad, 0xff, 0xff, 0xff,
  0x62, 0xfe, 0xff, 0xff, 0x04, 0x00, 0x00, 0x00, 0xb0, 0x00, 0x00, 0x00,
  0xe6, 0x1c, 0xf7, 0x22, 0x17, 0x45, 0x5d, 0xf5, 0x74, 0x4a, 0x56, 0x7f,
  0x02, 0xd0, 0x17, 0x36, 0x25, 0xf1, 0xd1, 0xd9, 0xba, 0x34, 0x68, 0x5a,
  0x2b, 0xc2, 0x7f, 0xc2, 0x10, 0x25, 0x13, 0xc0, 0x1b, 0xb4, 0xa9, 0x0b,
  0x8d, 0x3b, 0xcc, 0x7f, 0xc4, 0x39, 0xde, 0x3f, 0x05, 0x90, 0xcc, 0xe9,
  0xe5, 0x8b, 0xd8, 0xd3, 0x07, 0x13, 0x10, 0x26, 0xbe, 0xe3, 0x2d, 0xf9,
  0x7f, 0x8d, 0xb8, 0xc3, 0x78, 0xfb, 0x90, 0xc8, 0x90, 0x36, 0x90, 0x2a,
  0x37, 0x88, 0x21, 0xdd, 0x15, 0x5c, 0x01, 0x7f, 0xe3, 0x28, 0x54, 0xed,
  0xcb, 0x35, 0x9e, 0xf6, 0x0b, 0x74, 0x71, 0xf7, 0x7f, 0x90, 0xe0, 0xb1,
  0xed, 0xd8, 0xe9, 0x00, 0x5c, 0x0e, 0x0d, 0x20, 0x57, 0xbd, 0x0b, 0xc4,
  0x24, 0x61, 0x7f, 0xcd, 0x1d, 0xeb, 0xea, 0xe4, 0x37, 0x7f, 0xe1, 0x42,
  0xa2, 0x3b, 0x29, 0x06, 0x1d, 0xb0, 0xc7, 0xc2, 0x30, 0xdc, 0xd8, 0x5c,
  0x85, 0x3d, 0x34, 0xde, 0xc4, 0xed, 0x6d, 0xf1, 0x68, 0x7f, 0xce, 0xb3,
  0x42, 0xe7, 0xd3, 0xcb, 0x2d, 0x48, 0xb3, 0xcf, 0xc4, 0x9f, 0x40, 0x14,
  0x7f, 0x8f, 0xe3, 0x92, 0x81, 0x28, 0x35, 0xb1, 0xb3, 0x1f, 0x86, 0x09,
  0xde, 0x55, 0x99, 0x13, 0x97, 0x70, 0xaf, 0x65, 0x1e, 0xff, 0xff, 0xff,
  0x04, 0x00, 0x00, 0x00, 0x2c, 0x00, 0x00, 0x00, 0x0b, 0x00, 0x00, 0x00,
  0x94, 0xff, 0xff, 0xff, 0x08, 0x00, 0x00, 0x00, 0x83, 0xff, 0xff, 0xff,
  0x54, 0x00, 0x00, 0x00, 0x3f, 0xff, 0xff, 0xff, 0xd2, 0x00, 0x00, 0x00,
  0xf2, 0xff, 0xff, 0xff, 0x30, 0x01, 0x00, 0x00, 0xc9, 0x00, 0x00, 0x00,
  0xe9, 0xfe, 0xff, 0xff, 0x56, 0xff, 0xff, 0xff, 0x04, 0x00, 0x00, 0x00,
  0x08, 0x00, 0x00, 0x00, 0xff, 0xff, 0xff, 0xff, 0xc8, 0x00, 0x00, 0x00,
  0xf0, 0xf0, 0xff, 0xff, 0xf4, 0xf0, 0xff, 0xff, 0x0f, 0x00, 0x00, 0x00,
  0x4d, 0x4c, 0x49, 0x52, 0x20, 0x43, 0x6f, 0x6e, 0x76, 0x65, 0x72, 0x74,
  0x65, 0x64, 0x2e, 0x00, 0x01, 0x00, 0x00, 0x00, 0x14, 0x00, 0x00, 0x00,
  0x00, 0x00, 0x0e, 0x00, 0x18, 0x00, 0x14, 0x00, 0x10, 0x00, 0x0c, 0x00,
  0x08, 0x00, 0x04, 0x00, 0x0e, 0x00, 0x00, 0x00, 0x14, 0x00, 0x00, 0x00,
  0x1c, 0x00, 0x00, 0x00, 0x54, 0x02, 0x00, 0x00, 0x58, 0x02, 0x00, 0x00,
  0x5c, 0x02, 0x00, 0x00, 0x04, 0x00, 0x00, 0x00, 0x6d, 0x61, 0x69, 0x6e,
  0x00, 0x00, 0x00, 0x00, 0x08, 0x00, 0x00, 0x00, 0xec, 0x01, 0x00, 0x00,
  0x88, 0x01, 0x00, 0x00, 0x34, 0x01, 0x00, 0x00, 0xf0, 0x00, 0x00, 0x00,
  0xc8, 0x00, 0x00, 0x00, 0x78, 0x00, 0x00, 0x00, 0x40, 0x00, 0x00, 0x00,
  0x04, 0x00, 0x00, 0x00, 0xa2, 0xfe, 0xff, 0xff, 0x1c, 0x00, 0x00, 0x00,
  0x00, 0x00, 0x00, 0x09, 0x1c, 0x00, 0x00, 0x00, 0x20, 0x00, 0x00, 0x00,
  0x04, 0x00, 0x00, 0x00, 0x00, 0x00, 0x06, 0x00, 0x08, 0x00, 0x04, 0x00,
  0x06, 0x00, 0x00, 0x00, 0x00, 0x00, 0x80, 0x3f, 0x01, 0x00, 0x00, 0x00,
  0x11, 0x00, 0x00, 0x00, 0x01, 0x00, 0x00, 0x00, 0x10, 0x00, 0x00, 0x00,
  0xda, 0xfe, 0xff, 0xff, 0x14, 0x00, 0x00, 0x00, 0x00, 0x00, 0x00, 0x08,
  0x10, 0x00, 0x00, 0x00, 0x14, 0x00, 0x00, 0x00, 0x03, 0x00, 0x00, 0x00,
  0xbc, 0xf1, 0xff, 0xff, 0x01, 0x00, 0x00, 0x00, 0x10, 0x00, 0x00, 0x00,
  0x03, 0x00, 0x00, 0x00, 0x0f, 0x00, 0x00, 0x00, 0x03, 0x00, 0x00, 0x00,
  0x02, 0x00, 0x00, 0x00, 0x0e, 0xff, 0xff, 0xff, 0x1c, 0x00, 0x00, 0x00,
  0x00, 0x00, 0x00, 0x08, 0x1c, 0x00, 0x00, 0x00, 0x20, 0x00, 0x00, 0x00,
  0x03, 0x00, 0x00, 0x00, 0x00, 0x00, 0x06, 0x00, 0x08, 0x00, 0x07, 0x00,
  0x06, 0x00, 0x00, 0x00, 0x00, 0x00, 0x00, 0x01, 0x01, 0x00, 0x00, 0x00,
  0x0f, 0x00, 0x00, 0x00, 0x03, 0x00, 0x00, 0x00, 0x0e, 0x00, 0x00, 0x00,
  0x05, 0x00, 0x00, 0x00, 0x04, 0x00, 0x00, 0x00, 0x00, 0x00, 0x0a, 0x00,
  0x10, 0x00, 0x0c, 0x00, 0x08, 0x00, 0x04, 0x00, 0x0a, 0x00, 0x00, 0x00,
  0x0c, 0x00, 0x00, 0x00, 0x10, 0x00, 0x00, 0x00, 0x02, 0x00, 0x00, 0x00,
  0x01, 0x00, 0x00, 0x00, 0x0e, 0x00, 0x00, 0x00, 0x02, 0x00, 0x00, 0x00,
  0x0d, 0x00, 0x00, 0x00, 0x01, 0x00, 0x00, 0x00, 0x7e, 0xff, 0xff, 0xff,
  0x14, 0x00, 0x00, 0x00, 0x00, 0x00, 0x00, 0x05, 0x24, 0x00, 0x00, 0x00,
  0x28, 0x00, 0x00, 0x00, 0x01, 0x00, 0x00, 0x00, 0x6e, 0xff, 0xff, 0xff,
  0x02, 0x00, 0x00, 0x00, 0x02, 0x00, 0x00, 0x00, 0x02, 0x00, 0x00, 0x00,
  0x02, 0x00, 0x00, 0x00, 0x00, 0x00, 0x00, 0x01, 0x01, 0x00, 0x00, 0x00,
  0x0d, 0x00, 0x00, 0x00, 0x01, 0x00, 0x00, 0x00, 0x0c, 0x00, 0x00, 0x00,
  0x5e, 0xff, 0xff, 0xff, 0x10, 0x00, 0x00, 0x00, 0x00, 0x00, 0x00, 0x01,
  0x1c, 0x00, 0x00, 0x00, 0x20, 0x00, 0x00, 0x00, 0x50, 0xff, 0xff, 0xff,
  0x00, 0x00, 0x00, 0x01, 0x01, 0x00, 0x00, 0x00, 0x01, 0x00, 0x00, 0x00,
  0x00, 0x00, 0x00, 0x01, 0x01, 0x00, 0x00, 0x00, 0x0c, 0x00, 0x00, 0x00,
  0x03, 0x00, 0x00, 0x00, 0x0b, 0x00, 0x00, 0x00, 0x07, 0x00, 0x00, 0x00,
  0x06, 0x00, 0x00, 0x00, 0x00, 0x00, 0x0e, 0x00, 0x1a, 0x00, 0x14, 0x00,
  0x10, 0x00, 0x0c, 0x00, 0x0b, 0x00, 0x04, 0x00, 0x0e, 0x00, 0x00, 0x00,
  0x24, 0x00, 0x00, 0x00, 0x00, 0x00, 0x00, 0x05, 0x34, 0x00, 0x00, 0x00,
  0x38, 0x00, 0x00, 0x00, 0x01, 0x00, 0x00, 0x00, 0x00, 0x00, 0x0e, 0x00,
  0x18, 0x00, 0x17, 0x00, 0x10, 0x00, 0x0c, 0x00, 0x08, 0x00, 0x04, 0x00,
  0x0e, 0x00, 0x00, 0x00, 0x02, 0x00, 0x00, 0x00, 0x02, 0x00, 0x00, 0x00,
  0x02, 0x00, 0x00, 0x00, 0x02, 0x00, 0x00, 0x00, 0x00, 0x00, 0x00, 0x01,
  0x01, 0x00, 0x00, 0x00, 0x0b, 0x00, 0x00, 0x00, 0x01, 0x00, 0x00, 0x00,
  0x0a, 0x00, 0x00, 0x00, 0x00, 0x00, 0x0e, 0x00, 0x14, 0x00, 0x00, 0x00,
  0x10, 0x00, 0x0c, 0x00, 0x0b, 0x00, 0x04, 0x00, 0x0e, 0x00, 0x00, 0x00,
  0x1c, 0x00, 0x00, 0x00, 0x00, 0x00, 0x00, 0x01, 0x28, 0x00, 0x00, 0x00,
  0x2c, 0x00, 0x00, 0x00, 0x0c, 0x00, 0x14, 0x00, 0x13, 0x00, 0x0c, 0x00,
  0x08, 0x00, 0x07, 0x00, 0x0c, 0x00, 0x00, 0x00, 0x00, 0x00, 0x00, 0x01,
  0x01, 0x00, 0x00, 0x00, 0x01, 0x00, 0x00, 0x00, 0x00, 0x00, 0x00, 0x01,
  0x01, 0x00, 0x00, 0x00, 0x0a, 0x00, 0x00, 0x00, 0x03, 0x00, 0x00, 0x00,
  0x00, 0x00, 0x00, 0x00, 0x09, 0x00, 0x00, 0x00, 0x08, 0x00, 0x00, 0x00,
  0x01, 0x00, 0x00, 0x00, 0x11, 0x00, 0x00, 0x00, 0x01, 0x00, 0x00, 0x00,
  0x00, 0x00, 0x00, 0x00, 0x12, 0x00, 0x00, 0x00, 0xa4, 0x0c, 0x00, 0x00,
  0x48, 0x0c, 0x00, 0x00, 0x58, 0x0b, 0x00, 0x00, 0x7c, 0x0a, 0x00, 0x00,
  0x68, 0x09, 0x00, 0x00, 0x4c, 0x08, 0x00, 0x00, 0x98, 0x07, 0x00, 0x00,
  0xd4, 0x06, 0x00, 0x00, 0x20, 0x06, 0x00, 0x00, 0x5c, 0x05, 0x00, 0x00,
  0x80, 0x04, 0x00, 0x00, 0xe4, 0x03, 0x00, 0x00, 0x08, 0x03, 0x00, 0x00,
  0x6c, 0x02, 0x00, 0x00, 0xe8, 0x01, 0x00, 0x00, 0x24, 0x01, 0x00, 0x00,
  0x80, 0x00, 0x00, 0x00, 0x04, 0x00, 0x00, 0x00, 0xba, 0xf3, 0xff, 0xff,
  0x00, 0x00, 0x00, 0x01, 0x18, 0x00, 0x00, 0x00, 0x20, 0x00, 0x00, 0x00,
  0x3c, 0x00, 0x00, 0x00, 0x12, 0x00, 0x00, 0x00, 0x00, 0x00, 0x00, 0x09,
  0x50, 0x00, 0x00, 0x00, 0x02, 0x00, 0x00, 0x00, 0xff, 0xff, 0xff, 0xff,
  0x0b, 0x00, 0x00, 0x00, 0x9c, 0xf3, 0xff, 0xff, 0x08, 0x00, 0x00, 0x00,
  0x10, 0x00, 0x00, 0x00, 0x01, 0x00, 0x00, 0x00, 0x80, 0xff, 0xff, 0xff,
  0xff, 0xff, 0xff, 0xff, 0x01, 0x00, 0x00, 0x00, 0x00, 0x00, 0x80, 0x3b,
  0x1b, 0x00, 0x00, 0x00, 0x53, 0x74, 0x61, 0x74, 0x65, 0x66, 0x75, 0x6c,
  0x50, 0x61, 0x72, 0x74, 0x69, 0x74, 0x69, 0x6f, 0x6e, 0x65, 0x64, 0x43,
  0x61, 0x6c, 0x6c, 0x5f, 0x31, 0x3a, 0x30, 0x00, 0x02, 0x00, 0x00, 0x00,
  0x01, 0x00, 0x00, 0x00, 0x0b, 0x00, 0x00, 0x00, 0x32, 0xf4, 0xff, 0xff,
  0x00, 0x00, 0x00, 0x01, 0x18, 0x00, 0x00, 0x00, 0x20, 0x00, 0x00, 0x00,
  0x3c, 0x00, 0x00, 0x00, 0x11, 0x00, 0x00, 0x00, 0x00, 0x00, 0x00, 0x09,
  0x78, 0x00, 0x00, 0x00, 0x02, 0x00, 0x00, 0x00, 0xff, 0xff, 0xff, 0xff,
  0x0b, 0x00, 0x00, 0x00, 0x14, 0xf4, 0xff, 0xff, 0x08, 0x00, 0x00, 0x00,
  0x10, 0x00, 0x00, 0x00, 0x01, 0x00, 0x00, 0x00, 0xfb, 0xff, 0xff, 0xff,
  0xff, 0xff, 0xff, 0xff, 0x01, 0x00, 0x00, 0x00, 0xc4, 0xb5, 0x96, 0x3e,
  0x40, 0x00, 0x00, 0x00, 0x73, 0x65, 0x71, 0x75, 0x65, 0x6e, 0x74, 0x69,
  0x61, 0x6c, 0x5f, 0x32, 0x5f, 0x31, 0x2f, 0x64, 0x65, 0x6e, 0x73, 0x65,
  0x5f, 0x35, 0x5f, 0x31, 0x2f, 0x4d, 0x61, 0x74, 0x4d, 0x75, 0x6c, 0x3b,
  0x73, 0x65, 0x71, 0x75, 0x65, 0x6e, 0x74, 0x69, 0x61, 0x6c, 0x5f, 0x32,
  0x5f, 0x31, 0x2f, 0x64, 0x65, 0x6e, 0x73, 0x65, 0x5f, 0x35, 0x5f, 0x31,
  0x2f, 0x42, 0x69, 0x61, 0x73, 0x41, 0x64, 0x64, 0x00, 0x00, 0x00, 0x00,
  0x02, 0x00, 0x00, 0x00, 0x01, 0x00, 0x00, 0x00, 0x0b, 0x00, 0x00, 0x00,
  0xd2, 0xf4, 0xff, 0xff, 0x00, 0x00, 0x00, 0x01, 0x18, 0x00, 0x00, 0x00,
  0x20, 0x00, 0x00, 0x00, 0x40, 0x00, 0x00, 0x00, 0x10, 0x00, 0x00, 0x00,
  0x00, 0x00, 0x00, 0x09, 0x98, 0x00, 0x00, 0x00, 0x02, 0x00, 0x00, 0x00,
  0xff, 0xff, 0xff, 0xff, 0x10, 0x00, 0x00, 0x00, 0xb4, 0xf4, 0xff, 0xff,
  0x08, 0x00, 0x00, 0x00, 0x14, 0x00, 0x00, 0x00, 0x01, 0x00, 0x00, 0x00,
  0x80, 0xff, 0xff, 0xff, 0xff, 0xff, 0xff, 0xff, 0x00, 0x00, 0x00, 0x00,
  0x01, 0x00, 0x00, 0x00, 0x95, 0x62, 0xaf, 0x3e, 0x5e, 0x00, 0x00, 0x00,
  0x73, 0x65, 0x71, 0x75, 0x65, 0x6e, 0x74, 0x69, 0x61, 0x6c, 0x5f, 0x32,
  0x5f, 0x31, 0x2f, 0x64, 0x65, 0x6e, 0x73, 0x65, 0x5f, 0x34, 0x5f, 0x31,
  0x2f, 0x4d, 0x61, 0x74, 0x4d, 0x75, 0x6c, 0x3b, 0x73, 0x65, 0x71, 0x75,
  0x65, 0x6e, 0x74, 0x69, 0x61, 0x6c, 0x5f, 0x32, 0x5f, 0x31, 0x2f, 0x64,
  0x65, 0x6e, 0x73, 0x65, 0x5f, 0x34, 0x5f, 0x31, 0x2f, 0x52, 0x65, 0x6c,
  0x75, 0x3b, 0x73, 0x65, 0x71, 0x75, 0x65, 0x6e, 0x74, 0x69, 0x61, 0x6c,
  0x5f, 0x32, 0x5f, 0x31, 0x2f, 0x64, 0x65, 0x6e, 0x73, 0x65, 0x5f, 0x34,
  0x5f, 0x31, 0x2f, 0x42, 0x69, 0x61, 0x73, 0x41, 0x64, 0x64, 0x00, 0x00,
  0x02, 0x00, 0x00, 0x00, 0x01, 0x00, 0x00, 0x00, 0x10, 0x00, 0x00, 0x00,
  0x92, 0xf5, 0xff, 0xff, 0x00, 0x00, 0x00, 0x01, 0x18, 0x00, 0x00, 0x00,
  0x20, 0x00, 0x00, 0x00, 0x3c, 0x00, 0x00, 0x00, 0x0f, 0x00, 0x00, 0x00,
  0x00, 0x00, 0x00, 0x09, 0x58, 0x00, 0x00, 0x00, 0x02, 0x00, 0x00, 0x00,
  0xff, 0xff, 0xff, 0xff, 0xc8, 0x00, 0x00, 0x00, 0x74, 0xf5, 0xff, 0xff,
  0x08, 0x00, 0x00, 0x00, 0x10, 0x00, 0x00, 0x00, 0x01, 0x00, 0x00, 0x00,
  0x80, 0xff, 0xff, 0xff, 0xff, 0xff, 0xff, 0xff, 0x01, 0x00, 0x00, 0x00,
  0x21, 0x46, 0x62, 0x3e, 0x22, 0x00, 0x00, 0x00, 0x73, 0x65, 0x71, 0x75,
  0x65, 0x6e, 0x74, 0x69, 0x61, 0x6c, 0x5f, 0x32, 0x5f, 0x31, 0x2f, 0x66,
  0x6c, 0x61, 0x74, 0x74, 0x65, 0x6e, 0x5f, 0x32, 0x5f, 0x31, 0x2f, 0x52,
  0x65, 0x73, 0x68, 0x61, 0x70, 0x65, 0x00, 0x00, 0x02, 0x00, 0x00, 0x00,
  0x01, 0x00, 0x00, 0x00, 0xc8, 0x00, 0x00, 0x00, 0x12, 0xf6, 0xff, 0xff,
  0x00, 0x00, 0x00, 0x01, 0x18, 0x00, 0x00, 0x00, 0x28, 0x00, 0x00, 0x00,
  0x44, 0x00, 0x00, 0x00, 0x0e, 0x00, 0x00, 0x00, 0x00, 0x00, 0x00, 0x09,
  0x68, 0x00, 0x00, 0x00, 0x04, 0x00, 0x00, 0x00, 0xff, 0xff, 0xff, 0xff,
  0x05, 0x00, 0x00, 0x00, 0x05, 0x00, 0x00, 0x00, 0x08, 0x00, 0x00, 0x00,
  0xfc, 0xf5, 0xff, 0xff, 0x08, 0x00, 0x00, 0x00, 0x10, 0x00, 0x00, 0x00,
  0x01, 0x00, 0x00, 0x00, 0x80, 0xff, 0xff, 0xff, 0xff, 0xff, 0xff, 0xff,
  0x01, 0x00, 0x00, 0x00, 0x21, 0x46, 0x62, 0x3e, 0x2a, 0x00, 0x00, 0x00,
  0x73, 0x65, 0x71, 0x75, 0x65, 0x6e, 0x74, 0x69, 0x61, 0x6c, 0x5f, 0x32,
  0x5f, 0x31, 0x2f, 0x6d, 0x61, 0x78, 0x5f, 0x70, 0x6f, 0x6f, 0x6c, 0x69,
  0x6e, 0x67, 0x32, 0x64, 0x5f, 0x35, 0x5f, 0x31, 0x2f, 0x4d, 0x61, 0x78,
  0x50, 0x6f, 0x6f, 0x6c, 0x32, 0x64, 0x00, 0x00, 0x04, 0x00, 0x00, 0x00,
  0x01, 0x00, 0x00, 0x00, 0x05, 0x00, 0x00, 0x00, 0x05, 0x00, 0x00, 0x00,
  0x08, 0x00, 0x00, 0x00, 0xaa, 0xf6, 0xff, 0xff, 0x00, 0x00, 0x00, 0x01,
  0x18, 0x00, 0x00, 0x00, 0x28, 0x00, 0x00, 0x00, 0x48, 0x00, 0x00, 0x00,
  0x0d, 0x00, 0x00, 0x00, 0x00, 0x00, 0x00, 0x09, 0xa8, 0x00, 0x00, 0x00,
  0x04, 0x00, 0x00, 0x00, 0xff, 0xff, 0xff, 0xff, 0x0b, 0x00, 0x00, 0x00,
  0x0b, 0x00, 0x00, 0x00, 0x08, 0x00, 0x00, 0x00, 0x94, 0xf6, 0xff, 0xff,
  0x08, 0x00, 0x00, 0x00, 0x14, 0x00, 0x00, 0x00, 0x01, 0x00, 0x00, 0x00,
  0x80, 0xff, 0xff, 0xff, 0xff, 0xff, 0xff, 0xff, 0x00, 0x00, 0x00, 0x00,
  0x01, 0x00, 0x00, 0x00, 0x21, 0x46, 0x62, 0x3e, 0x67, 0x00, 0x00, 0x00,
  0x73, 0x65, 0x71, 0x75, 0x65, 0x6e, 0x74, 0x69, 0x61, 0x6c, 0x5f, 0x32,
  0x5f, 0x31, 0x2f, 0x63, 0x6f, 0x6e, 0x76, 0x32, 0x64, 0x5f, 0x35, 0x5f,
  0x31, 0x2f, 0x52, 0x65, 0x6c, 0x75, 0x3b, 0x73, 0x65, 0x71, 0x75, 0x65,
  0x6e, 0x74, 0x69, 0x61, 0x6c, 0x5f, 0x32, 0x5f, 0x31, 0x2f, 0x63, 0x6f,
  0x6e, 0x76, 0x32, 0x64, 0x5f, 0x35, 0x5f, 0x31, 0x2f, 0x42, 0x69, 0x61,
  0x73, 0x41, 0x64, 0x64, 0x3b, 0x73, 0x65, 0x71, 0x75, 0x65, 0x6e, 0x74,
  0x69, 0x61, 0x6c, 0x5f, 0x32, 0x5f, 0x31, 0x2f, 0x63, 0x6f, 0x6e, 0x76,
  0x32, 0x64, 0x5f, 0x35, 0x5f, 0x31, 0x2f, 0x63, 0x6f, 0x6e, 0x76, 0x6f,
  0x6c, 0x75, 0x74, 0x69, 0x6f, 0x6e, 0x3b, 0x00, 0x04, 0x00, 0x00, 0x00,
  0x01, 0x00, 0x00, 0x00, 0x0b, 0x00, 0x00, 0x00, 0x0b, 0x00, 0x00, 0x00,
  0x08, 0x00, 0x00, 0x00, 0x82, 0xf7, 0xff, 0xff, 0x00, 0x00, 0x00, 0x01,
  0x18, 0x00, 0x00, 0x00, 0x28, 0x00, 0x00, 0x00, 0x44, 0x00, 0x00, 0x00,
  0x0c, 0x00, 0x00, 0x00, 0x00, 0x00, 0x00, 0x09, 0x68, 0x00, 0x00, 0x00,
  0x04, 0x00, 0x00, 0x00, 0xff, 0xff, 0xff, 0xff, 0x0d, 0x00, 0x00, 0x00,
  0x0d, 0x00, 0x00, 0x00, 0x08, 0x00, 0x00, 0x00, 0x6c, 0xf7, 0xff, 0xff,
  0x08, 0x00, 0x00, 0x00, 0x10, 0x00, 0x00, 0x00, 0x01, 0x00, 0x00, 0x00,
  0x80, 0xff, 0xff, 0xff, 0xff, 0xff, 0xff, 0xff, 0x01, 0x00, 0x00, 0x00,
  0x5e, 0x22, 0xd5, 0x3e, 0x2a, 0x00, 0x00, 0x00, 0x73, 0x65, 0x71, 0x75,
  0x65, 0x6e, 0x74, 0x69, 0x61, 0x6c, 0x5f, 0x32, 0x5f, 0x31, 0x2f, 0x6d,
  0x61, 0x78, 0x5f, 0x70, 0x6f, 0x6f, 0x6c, 0x69, 0x6e, 0x67, 0x32, 0x64,
  0x5f, 0x34, 0x5f, 0x31, 0x2f, 0x4d, 0x61, 0x78, 0x50, 0x6f, 0x6f, 0x6c,
  0x32, 0x64, 0x00, 0x00, 0x04, 0x00, 0x00, 0x00, 0x01, 0x00, 0x00, 0x00,
  0x0d, 0x00, 0x00, 0x00, 0x0d, 0x00, 0x00, 0x00, 0x08, 0x00, 0x00, 0x00,
  0x1a, 0xf8, 0xff, 0xff, 0x00, 0x00, 0x00, 0x01, 0x18, 0x00, 0x00, 0x00,
  0x28, 0x00, 0x00, 0x00, 0x44, 0x00, 0x00, 0x00, 0x0b, 0x00, 0x00, 0x00,
  0x00, 0x00, 0x00, 0x09, 0xa8, 0x00, 0x00, 0x00, 0x04, 0x00, 0x00, 0x00,
  0xff, 0xff, 0xff, 0xff, 0x1a, 0x00, 0x00, 0x00, 0x1a, 0x00, 0x00, 0x00,
  0x08, 0x00, 0x00, 0x00, 0x04, 0xf8, 0xff, 0xff, 0x08, 0x00, 0x00, 0x00,
  0x10, 0x00, 0x00, 0x00, 0x01, 0x00, 0x00, 0x00, 0x80, 0xff, 0xff, 0xff,
  0xff, 0xff, 0xff, 0xff, 0x01, 0x00, 0x00, 0x00, 0x5e, 0x22, 0xd5, 0x3e,
  0x68, 0x00, 0x00, 0x00, 0x73, 0x65, 0x71, 0x75, 0x65, 0x6e, 0x74, 0x69,
  0x61, 0x6c, 0x5f, 0x32, 0x5f, 0x31, 0x2f, 0x63, 0x6f, 0x6e, 0x76, 0x32,
  0x64, 0x5f, 0x34, 0x5f, 0x31, 0x2f, 0x52, 0x65, 0x6c, 0x75, 0x3b, 0x73,
  0x65, 0x71, 0x75, 0x65, 0x6e, 0x74, 0x69, 0x61, 0x6c, 0x5f, 0x32, 0x5f,
  0x31, 0x2f, 0x63, 0x6f, 0x6e, 0x76, 0x32, 0x64, 0x5f, 0x34, 0x5f, 0x31,
  0x2f, 0x42, 0x69, 0x61, 0x73, 0x41, 0x64, 0x64, 0x3b, 0x73, 0x65, 0x71,
  0x75, 0x65, 0x6e, 0x74, 0x69, 0x61, 0x6c, 0x5f, 0x32, 0x5f, 0x31, 0x2f,
  0x63, 0x6f, 0x6e, 0x76, 0x32, 0x64, 0x5f, 0x34, 0x5f, 0x31, 0x2f, 0x63,
  0x6f, 0x6e, 0x76, 0x6f, 0x6c, 0x75, 0x74, 0x69, 0x6f, 0x6e, 0x3b, 0x31,
  0x00, 0x00, 0x00, 0x00, 0x04, 0x00, 0x00, 0x00, 0x01, 0x00, 0x00, 0x00,
  0x1a, 0x00, 0x00, 0x00, 0x1a, 0x00, 0x00, 0x00, 0x08, 0x00, 0x00, 0x00,
  0x4a, 0xf9, 0xff, 0xff, 0x00, 0x00, 0x00, 0x01, 0x14, 0x00, 0x00, 0x00,
  0x88, 0x00, 0x00, 0x00, 0x0a, 0x00, 0x00, 0x00, 0x00, 0x00, 0x00, 0x09,
  0x94, 0x00, 0x00, 0x00, 0xc4, 0xf8, 0xff, 0xff, 0x08, 0x00, 0x00, 0x00,
  0x4c, 0x00, 0x00, 0x00, 0x08, 0x00, 0x00, 0x00, 0x00, 0x00, 0x00, 0x00,
  0x00, 0x00, 0x00, 0x00, 0x00, 0x00, 0x00, 0x00, 0x00, 0x00, 0x00, 0x00,
  0x00, 0x00, 0x00, 0x00, 0x00, 0x00, 0x00, 0x00, 0x00, 0x00, 0x00, 0x00,
  0x00, 0x00, 0x00, 0x00, 0x00, 0x00, 0x00, 0x00, 0x00, 0x00, 0x00, 0x00,
  0x00, 0x00, 0x00, 0x00, 0x00, 0x00, 0x00, 0x00, 0x00, 0x00, 0x00, 0x00,
  0x00, 0x00, 0x00, 0x00, 0x00, 0x00, 0x00, 0x00, 0x00, 0x00, 0x00, 0x00,
  0x00, 0x00, 0x00, 0x00, 0x08, 0x00, 0x00, 0x00, 0x0b, 0x17, 0x83, 0x3a,
  0x45, 0x12, 0xe1, 0x3a, 0x12, 0xbc, 0x13, 0x3b, 0x5c, 0x23, 0xf1, 0x3a,
  0xf0, 0x55, 0x8d, 0x3a, 0x6e, 0x68, 0x18, 0x3b, 0x2b, 0x8c, 0x03, 0x3b,
  0xa2, 0x72, 0xa4, 0x3a, 0x12, 0x00, 0x00, 0x00, 0x74, 0x66, 0x6c, 0x2e,
  0x70, 0x73, 0x65, 0x75, 0x64, 0x6f, 0x5f, 0x71, 0x63, 0x6f, 0x6e, 0x73,
  0x74, 0x37, 0x00, 0x00, 0x04, 0x00, 0x00, 0x00, 0x08, 0x00, 0x00, 0x00,
  0x03, 0x00, 0x00, 0x00, 0x03, 0x00, 0x00, 0x00, 0x01, 0x00, 0x00, 0x00,
  0x0a, 0xfa, 0xff, 0xff, 0x00, 0x00, 0x00, 0x01, 0x14, 0x00, 0x00, 0x00,
  0x84, 0x00, 0x00, 0x00, 0x09, 0x00, 0x00, 0x00, 0x00, 0x00, 0x00, 0x02,
  0x90, 0x00, 0x00, 0x00, 0x84, 0xf9, 0xff, 0xff, 0x08, 0x00, 0x00, 0x00,
  0x48, 0x00, 0x00, 0x00, 0x08, 0x00, 0x00, 0x00, 0x00, 0x00, 0x00, 0x00,
  0x00, 0x00, 0x00, 0x00, 0x00, 0x00, 0x00, 0x00, 0x00, 0x00, 0x00, 0x00,
  0x00, 0x00, 0x00, 0x00, 0x00, 0x00, 0x00, 0x00, 0x00, 0x00, 0x00, 0x00,
  0x00, 0x00, 0x00, 0x00, 0x00, 0x00, 0x00, 0x00, 0x00, 0x00, 0x00, 0x00,
  0x00, 0x00, 0x00, 0x00, 0x00, 0x00, 0x00, 0x00, 0x00, 0x00, 0x00, 0x00,
  0x00, 0x00, 0x00, 0x00, 0x00, 0x00, 0x00, 0x00, 0x00, 0x00, 0x00, 0x00,
  0x08, 0x00, 0x00, 0x00, 0x0b, 0x17, 0x83, 0x3a, 0x45, 0x12, 0xe1, 0x3a,
  0x12, 0xbc, 0x13, 0x3b, 0x5c, 0x23, 0xf1, 0x3a, 0xf0, 0x55, 0x8d, 0x3a,
  0x6e, 0x68, 0x18, 0x3b, 0x2b, 0x8c, 0x03, 0x3b, 0xa2, 0x72, 0xa4, 0x3a,
  0x12, 0x00, 0x00, 0x00, 0x74, 0x66, 0x6c, 0x2e, 0x70, 0x73, 0x65, 0x75,
  0x64, 0x6f, 0x5f, 0x71, 0x63, 0x6f, 0x6e, 0x73, 0x74, 0x36, 0x00, 0x00,
  0x01, 0x00, 0x00, 0x00, 0x08, 0x00, 0x00, 0x00, 0xba, 0xfa, 0xff, 0xff,
  0x00, 0x00, 0x00, 0x01, 0x14, 0x00, 0x00, 0x00, 0x88, 0x00, 0x00, 0x00,
  0x08, 0x00, 0x00, 0x00, 0x00, 0x00, 0x00, 0x09, 0x94, 0x00, 0x00, 0x00,
  0x34, 0xfa, 0xff, 0xff, 0x08, 0x00, 0x00, 0x00, 0x4c, 0x00, 0x00, 0x00,
  0x08, 0x00, 0x00, 0x00, 0x00, 0x00, 0x00, 0x00, 0x00, 0x00, 0x00, 0x00,
  0x00, 0x00, 0x00, 0x00, 0x00, 0x00, 0x00, 0x00, 0x00, 0x00, 0x00, 0x00,
  0x00, 0x00, 0x00, 0x00, 0x00, 0x00, 0x00, 0x00, 0x00, 0x00, 0x00, 0x00,
  0x00, 0x00, 0x00, 0x00, 0x00, 0x00, 0x00, 0x00, 0x00, 0x00, 0x00, 0x00,
  0x00, 0x00, 0x00, 0x00, 0x00, 0x00, 0x00, 0x00, 0x00, 0x00, 0x00, 0x00,
  0x00, 0x00, 0x00, 0x00, 0x00, 0x00, 0x00, 0x00, 0x00, 0x00, 0x00, 0x00,
  0x08, 0x00, 0x00, 0x00, 0xbf, 0xb5, 0x0f, 0x3b, 0xfe, 0x2d, 0xf2, 0x3a,
  0x74, 0x07, 0x1c, 0x3b, 0xe3, 0xef, 0x0c, 0x3b, 0xeb, 0xc4, 0x16, 0x3b,
  0xb7, 0x1b, 0xfd, 0x3a, 0xf1, 0x4e, 0x61, 0x3b, 0x28, 0x5a, 0xe4, 0x3a,
  0x12, 0x00, 0x00, 0x00, 0x74, 0x66, 0x6c, 0x2e, 0x70, 0x73, 0x65, 0x75,
  0x64, 0x6f, 0x5f, 0x71, 0x63, 0x6f, 0x6e, 0x73, 0x74, 0x35, 0x00, 0x00,
  0x04, 0x00, 0x00, 0x00, 0x08, 0x00, 0x00, 0x00, 0x03, 0x00, 0x00, 0x00,
  0x03, 0x00, 0x00, 0x00, 0x08, 0x00, 0x00, 0x00, 0x7a, 0xfb, 0xff, 0xff,
  0x00, 0x00, 0x00, 0x01, 0x14, 0x00, 0x00, 0x00, 0x84, 0x00, 0x00, 0x00,
  0x07, 0x00, 0x00, 0x00, 0x00, 0x00, 0x00, 0x02, 0x90, 0x00, 0x00, 0x00,
  0xf4, 0xfa, 0xff, 0xff, 0x08, 0x00, 0x00, 0x00, 0x48, 0x00, 0x00, 0x00,
  0x08, 0x00, 0x00, 0x00, 0x00, 0x00, 0x00, 0x00, 0x00, 0x00, 0x00, 0x00,
  0x00, 0x00, 0x00, 0x00, 0x00, 0x00, 0x00, 0x00, 0x00, 0x00, 0x00, 0x00,
  0x00, 0x00, 0x00, 0x00, 0x00, 0x00, 0x00, 0x00, 0x00, 0x00, 0x00, 0x00,
  0x00, 0x00, 0x00, 0x00, 0x00, 0x00, 0x00, 0x00, 0x00, 0x00, 0x00, 0x00,
  0x00, 0x00, 0x00, 0x00, 0x00, 0x00, 0x00, 0x00, 0x00, 0x00, 0x00, 0x00,
  0x00, 0x00, 0x00, 0x00, 0x00, 0x00, 0x00, 0x00, 0x08, 0x00, 0x00, 0x00,
  0x06, 0x4b, 0x6f, 0x3a, 0xc7, 0xa0, 0x49, 0x3a, 0x26, 0xe7, 0x81, 0x3a,
  0x07, 0xad, 0x6a, 0x3a, 0x2a, 0x0c, 0x7b, 0x3a, 0x0a, 0xba, 0x52, 0x3a,
  0xee, 0x94, 0xbb, 0x3a, 0xab, 0x1d, 0x3e, 0x3a, 0x12, 0x00, 0x00, 0x00,
  0x74, 0x66, 0x6c, 0x2e, 0x70, 0x73, 0x65, 0x75, 0x64, 0x6f, 0x5f, 0x71,
  0x63, 0x6f, 0x6e, 0x73, 0x74, 0x34, 0x00, 0x00, 0x01, 0x00, 0x00, 0x00,
  0x08, 0x00, 0x00, 0x00, 0x2a, 0xfc, 0xff, 0xff, 0x00, 0x00, 0x00, 0x01,
  0x14, 0x00, 0x00, 0x00, 0xe8, 0x00, 0x00, 0x00, 0x06, 0x00, 0x00, 0x00,
  0x00, 0x00, 0x00, 0x09, 0xf4, 0x00, 0x00, 0x00, 0xa4, 0xfb, 0xff, 0xff,
  0x08, 0x00, 0x00, 0x00, 0x8c, 0x00, 0x00, 0x00, 0x10, 0x00, 0x00, 0x00,
  0x00, 0x00, 0x00, 0x00, 0x00, 0x00, 0x00, 0x00, 0x00, 0x00, 0x00, 0x00,
  0x00, 0x00, 0x00, 0x00, 0x00, 0x00, 0x00, 0x00, 0x00, 0x00, 0x00, 0x00,
  0x00, 0x00, 0x00, 0x00, 0x00, 0x00, 0x00, 0x00, 0x00, 0x00, 0x00, 0x00,
  0x00, 0x00, 0x00, 0x00, 0x00, 0x00, 0x00, 0x00, 0x00, 0x00, 0x00, 0x00,
  0x00, 0x00, 0x00, 0x00, 0x00, 0x00, 0x00, 0x00, 0x00, 0x00, 0x00, 0x00,
  0x00, 0x00, 0x00, 0x00, 0x00, 0x00, 0x00, 0x00, 0x00, 0x00, 0x00, 0x00,
  0x00, 0x00, 0x00, 0x00, 0x00, 0x00, 0x00, 0x00, 0x00, 0x00, 0x00, 0x00,
  0x00, 0x00, 0x00, 0x00, 0x00, 0x00, 0x00, 0x00, 0x00, 0x00, 0x00, 0x00,
  0x00, 0x00, 0x00, 0x00, 0x00, 0x00, 0x00, 0x00, 0x00, 0x00, 0x00, 0x00,
  0x00, 0x00, 0x00, 0x00, 0x00, 0x00, 0x00, 0x00, 0x00, 0x00, 0x00, 0x00,
  0x00, 0x00, 0x00, 0x00, 0x00, 0x00, 0x00, 0x00, 0x00, 0x00, 0x00, 0x00,
  0x10, 0x00, 0x00, 0x00, 0xfb, 0x1a, 0x1a, 0x3b, 0x22, 0xa3, 0x23, 0x3b,
  0x15, 0xfb, 0x26, 0x3b, 0x3b, 0x75, 0xf6, 0x3a, 0xfe, 0x26, 0xce, 0x3a,
  0x34, 0x98, 0x27, 0x3b, 0x55, 0xd4, 0xcf, 0x3a, 0xf0, 0x21, 0x35, 0x3b,
  0xe9, 0xbf, 0xd6, 0x3a, 0x5b, 0x82, 0xd8, 0x3a, 0xa1, 0x41, 0xdb, 0x3a,
  0x69, 0x25, 0x14, 0x3b, 0xbb, 0x1e, 0x83, 0x3b, 0x32, 0x71, 0xbc, 0x3a,
  0xa5, 0x25, 0xfe, 0x3a, 0xea, 0x39, 0xcc, 0x3a, 0x12, 0x00, 0x00, 0x00,
  0x74, 0x66, 0x6c, 0x2e, 0x70, 0x73, 0x65, 0x75, 0x64, 0x6f, 0x5f, 0x71,
  0x63, 0x6f, 0x6e, 0x73, 0x74, 0x33, 0x00, 0x00, 0x02, 0x00, 0x00, 0x00,
  0x10, 0x00, 0x00, 0x00, 0xc8, 0x00, 0x00, 0x00, 0x42, 0xfd, 0xff, 0xff,
  0x00, 0x00, 0x00, 0x01, 0x14, 0x00, 0x00, 0x00, 0xe4, 0x00, 0x00, 0x00,
  0x05, 0x00, 0x00, 0x00, 0x00, 0x00, 0x00, 0x02, 0xf0, 0x00, 0x00, 0x00,
  0xbc, 0xfc, 0xff, 0xff, 0x08, 0x00, 0x00, 0x00, 0x88, 0x00, 0x00, 0x00,
  0x10, 0x00, 0x00, 0x00, 0x00, 0x00, 0x00, 0x00, 0x00, 0x00, 0x00, 0x00,
  0x00, 0x00, 0x00, 0x00, 0x00, 0x00, 0x00, 0x00, 0x00, 0x00, 0x00, 0x00,
  0x00, 0x00, 0x00, 0x00, 0x00, 0x00, 0x00, 0x00, 0x00, 0x00, 0x00, 0x00,
  0x00, 0x00, 0x00, 0x00, 0x00, 0x00, 0x00, 0x00, 0x00, 0x00, 0x00, 0x00,
  0x00, 0x00, 0x00, 0x00, 0x00, 0x00, 0x00, 0x00, 0x00, 0x00, 0x00, 0x00,
  0x00, 0x00, 0x00, 0x00, 0x00, 0x00, 0x00, 0x00, 0x00, 0x00, 0x00, 0x00,
  0x00, 0x00, 0x00, 0x00, 0x00, 0x00, 0x00, 0x00, 0x00, 0x00, 0x00, 0x00,
  0x00, 0x00, 0x00, 0x00, 0x00, 0x00, 0x00, 0x00, 0x00, 0x00, 0x00, 0x00,
  0x00, 0x00, 0x00, 0x00, 0x00, 0x00, 0x00, 0x00, 0x00, 0x00, 0x00, 0x00,
  0x00, 0x00, 0x00, 0x00, 0x00, 0x00, 0x00, 0x00, 0x00, 0x00, 0x00, 0x00,
  0x00, 0x00, 0x00, 0x00, 0x00, 0x00, 0x00, 0x00, 0x00, 0x00, 0x00, 0x00,
  0x10, 0x00, 0x00, 0x00, 0x09, 0x36, 0x08, 0x3a, 0xd8, 0xa2, 0x10, 0x3a,
  0x67, 0x97, 0x13, 0x3a, 0x02, 0xd7, 0xd9, 0x39, 0xe5, 0x36, 0xb6, 0x39,
  0x47, 0x22, 0x14, 0x3a, 0x62, 0xb2, 0xb7, 0x39, 0x95, 0x19, 0x20, 0x3a,
  0x40, 0xd0, 0xbd, 0x39, 0x64, 0x5e, 0xbf, 0x39, 0x00, 0xcc, 0xc1, 0x39,
  0x9c, 0xf1, 0x02, 0x3a, 0x19, 0xca, 0x67, 0x3a, 0x8d, 0x8f, 0xa6, 0x39,
  0xdb, 0xa2, 0xe0, 0x39, 0x13, 0x83, 0xb4, 0x39, 0x12, 0x00, 0x00, 0x00,
  0x74, 0x66, 0x6c, 0x2e, 0x70, 0x73, 0x65, 0x75, 0x64, 0x6f, 0x5f, 0x71,
  0x63, 0x6f, 0x6e, 0x73, 0x74, 0x32, 0x00, 0x00, 0x01, 0x00, 0x00, 0x00,
  0x10, 0x00, 0x00, 0x00, 0x52, 0xfe, 0xff, 0xff, 0x00, 0x00, 0x00, 0x01,
  0x14, 0x00, 0x00, 0x00, 0xa8, 0x00, 0x00, 0x00, 0x04, 0x00, 0x00, 0x00,
  0x00, 0x00, 0x00, 0x09, 0xb4, 0x00, 0x00, 0x00, 0xcc, 0xfd, 0xff, 0xff,
  0x08, 0x00, 0x00, 0x00, 0x60, 0x00, 0x00, 0x00, 0x0b, 0x00, 0x00, 0x00,
  0x00, 0x00, 0x00, 0x00, 0x00, 0x00, 0x00, 0x00, 0x00, 0x00, 0x00, 0x00,
  0x00, 0x00, 0x00, 0x00, 0x00, 0x00, 0x00, 0x00, 0x00, 0x00, 0x00, 0x00,
  0x00, 0x00, 0x00, 0x00, 0x00, 0x00, 0x00, 0x00, 0x00, 0x00, 0x00, 0x00,
  0x00, 0x00, 0x00, 0x00, 0x00, 0x00, 0x00, 0x00, 0x00, 0x00, 0x00, 0x00,
  0x00, 0x00, 0x00, 0x00, 0x00, 0x00, 0x00, 0x00, 0x00, 0x00, 0x00, 0x00,
  0x00, 0x00, 0x00, 0x00, 0x00, 0x00, 0x00, 0x00, 0x00, 0x00, 0x00, 0x00,
  0x00, 0x00, 0x00, 0x00, 0x00, 0x00, 0x00, 0x00, 0x00, 0x00, 0x00, 0x00,
  0x00, 0x00, 0x00, 0x00, 0x0b, 0x00, 0x00, 0x00, 0xc8, 0x64, 0x40, 0x3b,
  0xf7, 0x8f, 0x73, 0x3b, 0x8d, 0x3d, 0x50, 0x3b, 0x14, 0x11, 0x4e, 0x3b,
  0x0c, 0x0b, 0x5b, 0x3b, 0xe8, 0x7f, 0x20, 0x3b, 0xdd, 0x62, 0x7b, 0x3b,
  0xd1, 0x27, 0x7d, 0x3b, 0xc3, 0x79, 0x21, 0x3b, 0x8a, 0x07, 0x43, 0x3b,
  0x3c, 0xcd, 0x7d, 0x3b, 0x12, 0x00, 0x00, 0x00, 0x74, 0x66, 0x6c, 0x2e,
  0x70, 0x73, 0x65, 0x75, 0x64, 0x6f, 0x5f, 0x71, 0x63, 0x6f, 0x6e, 0x73,
  0x74, 0x31, 0x00, 0x00, 0x02, 0x00, 0x00, 0x00, 0x0b, 0x00, 0x00, 0x00,
  0x10, 0x00, 0x00, 0x00, 0x2a, 0xff, 0xff, 0xff, 0x00, 0x00, 0x00, 0x01,
  0x14, 0x00, 0x00, 0x00, 0xa8, 0x00, 0x00, 0x00, 0x03, 0x00, 0x00, 0x00,
  0x00, 0x00, 0x00, 0x02, 0xb4, 0x00, 0x00, 0x00, 0xa4, 0xfe, 0xff, 0xff,
  0x08, 0x00, 0x00, 0x00, 0x60, 0x00, 0x00, 0x00, 0x0b, 0x00, 0x00, 0x00,
  0x00, 0x00, 0x00, 0x00, 0x00, 0x00, 0x00, 0x00, 0x00, 0x00, 0x00, 0x00,
  0x00, 0x00, 0x00, 0x00, 0x00, 0x00, 0x00, 0x00, 0x00, 0x00, 0x00, 0x00,
  0x00, 0x00, 0x00, 0x00, 0x00, 0x00, 0x00, 0x00, 0x00, 0x00, 0x00, 0x00,
  0x00, 0x00, 0x00, 0x00, 0x00, 0x00, 0x00, 0x00, 0x00, 0x00, 0x00, 0x00,
  0x00, 0x00, 0x00, 0x00, 0x00, 0x00, 0x00, 0x00, 0x00, 0x00, 0x00, 0x00,
  0x00, 0x00, 0x00, 0x00, 0x00, 0x00, 0x00, 0x00, 0x00, 0x00, 0x00, 0x00,
  0x00, 0x00, 0x00, 0x00, 0x00, 0x00, 0x00, 0x00, 0x00, 0x00, 0x00, 0x00,
  0x00, 0x00, 0x00, 0x00, 0x0b, 0x00, 0x00, 0x00, 0xfb, 0xce, 0x83, 0x3a,
  0x35, 0xdd, 0xa6, 0x3a, 0x44, 0xaa, 0x8e, 0x3a, 0x07, 0x2d, 0x8d, 0x3a,
  0xe7, 0x10, 0x96, 0x3a, 0x7c, 0xea, 0x5b, 0x3a, 0x63, 0x39, 0xac, 0x3a,
  0xb4, 0x6f, 0xad, 0x3a, 0xd6, 0x40, 0x5d, 0x3a, 0x42, 0x9d, 0x85, 0x3a,
  0x08, 0xe1, 0xad, 0x3a, 0x11, 0x00, 0x00, 0x00, 0x74, 0x66, 0x6c, 0x2e,
  0x70, 0x73, 0x65, 0x75, 0x64, 0x6f, 0x5f, 0x71, 0x63, 0x6f, 0x6e, 0x73,
  0x74, 0x00, 0x00, 0x00, 0x01, 0x00, 0x00, 0x00, 0x0b, 0x00, 0x00, 0x00,
  0x00, 0x00, 0x16, 0x00, 0x1c, 0x00, 0x18, 0x00, 0x17, 0x00, 0x10, 0x00,
  0x0c, 0x00, 0x08, 0x00, 0x00, 0x00, 0x00, 0x00, 0x00, 0x00, 0x07, 0x00,
  0x16, 0x00, 0x00, 0x00, 0x00, 0x00, 0x00, 0x01, 0x18, 0x00, 0x00, 0x00,
  0x18, 0x00, 0x00, 0x00, 0x02, 0x00, 0x00, 0x00, 0x00, 0x00, 0x00, 0x02,
  0x20, 0x00, 0x00, 0x00, 0x04, 0x00, 0x04, 0x00, 0x04, 0x00, 0x00, 0x00,
  0x0e, 0x00, 0x00, 0x00, 0x61, 0x72, 0x69, 0x74, 0x68, 0x2e, 0x63, 0x6f,
  0x6e, 0x73, 0x74, 0x61, 0x6e, 0x74, 0x00, 0x00, 0x01, 0x00, 0x00, 0x00,
  0x02, 0x00, 0x00, 0x00, 0x00, 0x00, 0x16, 0x00, 0x20, 0x00, 0x1c, 0x00,
  0x1b, 0x00, 0x14, 0x00, 0x10, 0x00, 0x0c, 0x00, 0x00, 0x00, 0x00, 0x00,
  0x08, 0x00, 0x07, 0x00, 0x16, 0x00, 0x00, 0x00, 0x00, 0x00, 0x00, 0x01,
  0x18, 0x00, 0x00, 0x00, 0x34, 0x00, 0x00, 0x00, 0x50, 0x00, 0x00, 0x00,
  0x01, 0x00, 0x00, 0x00, 0x00, 0x00, 0x00, 0x09, 0x6c, 0x00, 0x00, 0x00,
  0x04, 0x00, 0x00, 0x00, 0xff, 0xff, 0xff, 0xff, 0x1c, 0x00, 0x00, 0x00,
  0x1c, 0x00, 0x00, 0x00, 0x01, 0x00, 0x00, 0x00, 0x0c, 0x00, 0x0c, 0x00,
  0x00, 0x00, 0x00, 0x00, 0x08, 0x00, 0x04, 0x00, 0x0c, 0x00, 0x00, 0x00,
  0x08, 0x00, 0x00, 0x00, 0x10, 0x00, 0x00, 0x00, 0x01, 0x00, 0x00, 0x00,
  0x80, 0xff, 0xff, 0xff, 0xff, 0xff, 0xff, 0xff, 0x01, 0x00, 0x00, 0x00,
  0x00, 0x00, 0x80, 0x3f, 0x21, 0x00, 0x00, 0x00, 0x73, 0x65, 0x72, 0x76,
  0x69, 0x6e, 0x67, 0x5f, 0x64, 0x65, 0x66, 0x61, 0x75, 0x6c, 0x74, 0x5f,
  0x6b, 0x65, 0x72, 0x61, 0x73, 0x5f, 0x74, 0x65, 0x6e, 0x73, 0x6f, 0x72,
  0x5f, 0x31, 0x36, 0x3a, 0x30, 0x00, 0x00, 0x00, 0x04, 0x00, 0x00, 0x00,
  0x01, 0x00, 0x00, 0x00, 0x1c, 0x00, 0x00, 0x00, 0x1c, 0x00, 0x00, 0x00,
  0x01, 0x00, 0x00, 0x00, 0x05, 0x00, 0x00, 0x00, 0x68, 0x00, 0x00, 0x00,
  0x48, 0x00, 0x00, 0x00, 0x38, 0x00, 0x00, 0x00, 0x18, 0x00, 0x00, 0x00,
  0x04, 0x00, 0x00, 0x00, 0xb8, 0xff, 0xff, 0xff, 0x19, 0x00, 0x00, 0x00,
  0x02, 0x00, 0x00, 0x00, 0x00, 0x00, 0x00, 0x19, 0xc8, 0xff, 0xff, 0xff,
  0x09, 0x00, 0x00, 0x00, 0x04, 0x00, 0x00, 0x00, 0x00, 0x00, 0x00, 0x09,
  0x0c, 0x00, 0x0c, 0x00, 0x0b, 0x00, 0x00, 0x00, 0x00, 0x00, 0x04, 0x00,
  0x0c, 0x00, 0x00, 0x00, 0x16, 0x00, 0x00, 0x00, 0x00, 0x00, 0x00, 0x16,
  0xf0, 0xff, 0xff, 0xff, 0x11, 0x00, 0x00, 0x00, 0x02, 0x00, 0x00, 0x00,
  0x00, 0x00, 0x00, 0x11, 0x0c, 0x00, 0x10, 0x00, 0x0f, 0x00, 0x00, 0x00,
  0x08, 0x00, 0x04, 0x00, 0x0c, 0x00, 0x00, 0x00, 0x03, 0x00, 0x00, 0x00,
  0x03, 0x00, 0x00, 0x00, 0x00, 0x00, 0x00, 0x03
};
unsigned int g_mnist_digits_tiny_int8_tflite_len = 9104;
